unsigned char TFLite_Models_model_tflite[] = {
  0x1c, 0x00, 0x00, 0x00, 0x54, 0x46, 0x4c, 0x33, 0x14, 0x00, 0x20, 0x00,
  0x04, 0x00, 0x08, 0x00, 0x0c, 0x00, 0x10, 0x00, 0x14, 0x00, 0x00, 0x00,
  0x18, 0x00, 0x1c, 0x00, 0x14, 0x00, 0x00, 0x00, 0x03, 0x00, 0x00, 0x00,
  0x18, 0x00, 0x00, 0x00, 0x38, 0x00, 0x00, 0x00, 0xf0, 0x01, 0x00, 0x00,
  0x38, 0x00, 0x00, 0x00, 0x98, 0x01, 0x00, 0x00, 0x10, 0x01, 0x00, 0x00,
  0x08, 0x00, 0x00, 0x00, 0xc8, 0x18, 0x00, 0x00, 0xac, 0x17, 0x00, 0x00,
  0xc0, 0x16, 0x00, 0x00, 0x34, 0x13, 0x00, 0x00, 0xc0, 0x05, 0x00, 0x00,
  0xe8, 0x04, 0x00, 0x00, 0x2c, 0x04, 0x00, 0x00, 0x80, 0x03, 0x00, 0x00,
  0x01, 0x00, 0x00, 0x00, 0xdc, 0x01, 0x00, 0x00, 0x37, 0x00, 0x00, 0x00,
  0xc8, 0x5f, 0x01, 0x00, 0xc4, 0x5f, 0x01, 0x00, 0x84, 0x5e, 0x01, 0x00,
  0x98, 0x5b, 0x01, 0x00, 0x48, 0x5a, 0x01, 0x00, 0xac, 0x59, 0x01, 0x00,
  0x0c, 0x59, 0x01, 0x00, 0xd8, 0x4e, 0x01, 0x00, 0x88, 0x4d, 0x01, 0x00,
  0xec, 0x4c, 0x01, 0x00, 0x4c, 0x4c, 0x01, 0x00, 0x58, 0x38, 0x01, 0x00,
  0x08, 0x36, 0x01, 0x00, 0x5c, 0x35, 0x01, 0x00, 0xac, 0x34, 0x01, 0x00,
  0xb8, 0x0e, 0x01, 0x00, 0x68, 0x0c, 0x01, 0x00, 0xbc, 0x0b, 0x01, 0x00,
  0x0c, 0x0b, 0x01, 0x00, 0x98, 0xbf, 0x00, 0x00, 0x48, 0xbb, 0x00, 0x00,
  0x78, 0xba, 0x00, 0x00, 0xac, 0xb9, 0x00, 0x00, 0x38, 0x26, 0x00, 0x00,
  0xe8, 0x21, 0x00, 0x00, 0x18, 0x21, 0x00, 0x00, 0x4c, 0x20, 0x00, 0x00,
  0xd8, 0x19, 0x00, 0x00, 0x1c, 0x19, 0x00, 0x00, 0x54, 0x5f, 0x01, 0x00,
  0x50, 0x5f, 0x01, 0x00, 0x4c, 0x5f, 0x01, 0x00, 0x48, 0x5f, 0x01, 0x00,
  0x44, 0x5f, 0x01, 0x00, 0x40, 0x5f, 0x01, 0x00, 0x3c, 0x5f, 0x01, 0x00,
  0x38, 0x5f, 0x01, 0x00, 0x34, 0x5f, 0x01, 0x00, 0x30, 0x5f, 0x01, 0x00,
  0x2c, 0x5f, 0x01, 0x00, 0x28, 0x5f, 0x01, 0x00, 0x24, 0x5f, 0x01, 0x00,
  0x20, 0x5f, 0x01, 0x00, 0x1c, 0x5f, 0x01, 0x00, 0x18, 0x5f, 0x01, 0x00,
  0x14, 0x5f, 0x01, 0x00, 0x10, 0x5f, 0x01, 0x00, 0x0c, 0x5f, 0x01, 0x00,
  0x08, 0x5f, 0x01, 0x00, 0x04, 0x5f, 0x01, 0x00, 0x00, 0x5f, 0x01, 0x00,
  0xfc, 0x5e, 0x01, 0x00, 0xf8, 0x5e, 0x01, 0x00, 0xf4, 0x5e, 0x01, 0x00,
  0xbc, 0x00, 0x00, 0x00, 0x01, 0x00, 0x00, 0x00, 0x10, 0x00, 0x00, 0x00,
  0x00, 0x00, 0x0a, 0x00, 0x10, 0x00, 0x0c, 0x00, 0x08, 0x00, 0x04, 0x00,
  0x0a, 0x00, 0x00, 0x00, 0x0c, 0x00, 0x00, 0x00, 0x1c, 0x00, 0x00, 0x00,
  0x20, 0x00, 0x00, 0x00, 0x0f, 0x00, 0x00, 0x00, 0x73, 0x65, 0x72, 0x76,
  0x69, 0x6e, 0x67, 0x5f, 0x64, 0x65, 0x66, 0x61, 0x75, 0x6c, 0x74, 0x00,
  0x01, 0x00, 0x00, 0x00, 0x14, 0x00, 0x00, 0x00, 0x01, 0x00, 0x00, 0x00,
  0x24, 0x00, 0x00, 0x00, 0x08, 0x00, 0x0c, 0x00, 0x08, 0x00, 0x04, 0x00,
  0x08, 0x00, 0x00, 0x00, 0x34, 0x00, 0x00, 0x00, 0x04, 0x00, 0x00, 0x00,
  0x07, 0x00, 0x00, 0x00, 0x64, 0x65, 0x6e, 0x73, 0x65, 0x5f, 0x31, 0x00,
  0xbe, 0xa2, 0xfe, 0xff, 0x04, 0x00, 0x00, 0x00, 0x0e, 0x00, 0x00, 0x00,
  0x63, 0x6f, 0x6e, 0x76, 0x32, 0x64, 0x5f, 0x36, 0x5f, 0x69, 0x6e, 0x70,
  0x75, 0x74, 0x00, 0x00, 0x01, 0x00, 0x00, 0x00, 0x0c, 0x00, 0x00, 0x00,
  0x08, 0x00, 0x0c, 0x00, 0x04, 0x00, 0x08, 0x00, 0x08, 0x00, 0x00, 0x00,
  0x08, 0x00, 0x00, 0x00, 0x36, 0x00, 0x00, 0x00, 0x13, 0x00, 0x00, 0x00,
  0x6d, 0x69, 0x6e, 0x5f, 0x72, 0x75, 0x6e, 0x74, 0x69, 0x6d, 0x65, 0x5f,
  0x76, 0x65, 0x72, 0x73, 0x69, 0x6f, 0x6e, 0x00, 0x0e, 0xa3, 0xfe, 0xff,
  0x04, 0x00, 0x00, 0x00, 0x10, 0x00, 0x00, 0x00, 0x31, 0x2e, 0x31, 0x34,
  0x2e, 0x30, 0x00, 0x00, 0x00, 0x00, 0x00, 0x00, 0x00, 0x00, 0x00, 0x00,
  0x0f, 0x00, 0x00, 0x00, 0x4d, 0x4c, 0x49, 0x52, 0x20, 0x43, 0x6f, 0x6e,
  0x76, 0x65, 0x72, 0x74, 0x65, 0x64, 0x2e, 0x00, 0x00, 0x00, 0x0e, 0x00,
  0x18, 0x00, 0x04, 0x00, 0x08, 0x00, 0x0c, 0x00, 0x10, 0x00, 0x14, 0x00,
  0x0e, 0x00, 0x00, 0x00, 0x14, 0x00, 0x00, 0x00, 0xe8, 0x00, 0x00, 0x00,
  0xec, 0x00, 0x00, 0x00, 0xf0, 0x00, 0x00, 0x00, 0x54, 0x01, 0x00, 0x00,
  0x35, 0x00, 0x00, 0x00, 0x3c, 0x5d, 0x01, 0x00, 0xbc, 0x5c, 0x01, 0x00,
  0x68, 0x5b, 0x01, 0x00, 0xa8, 0x58, 0x01, 0x00, 0xdc, 0x57, 0x01, 0x00,
  0x3c, 0x57, 0x01, 0x00, 0xf8, 0x55, 0x01, 0x00, 0xe8, 0x4b, 0x01, 0x00,
  0x1c, 0x4b, 0x01, 0x00, 0x7c, 0x4a, 0x01, 0x00, 0x78, 0x48, 0x01, 0x00,
  0xa8, 0x34, 0x01, 0x00, 0x9c, 0x33, 0x01, 0x00, 0xec, 0x32, 0x01, 0x00,
  0xd8, 0x30, 0x01, 0x00, 0x08, 0x0b, 0x01, 0x00, 0xfc, 0x09, 0x01, 0x00,
  0x4c, 0x09, 0x01, 0x00, 0xb8, 0x05, 0x01, 0x00, 0x68, 0xba, 0x00, 0x00,
  0xd8, 0xb8, 0x00, 0x00, 0x0c, 0xb8, 0x00, 0x00, 0x58, 0xb4, 0x00, 0x00,
  0x08, 0x21, 0x00, 0x00, 0x78, 0x1f, 0x00, 0x00, 0xac, 0x1e, 0x00, 0x00,
  0xf8, 0x1d, 0x00, 0x00, 0x9c, 0x17, 0x00, 0x00, 0x4c, 0x16, 0x00, 0x00,
  0x30, 0x15, 0x00, 0x00, 0x3c, 0x14, 0x00, 0x00, 0x28, 0x13, 0x00, 0x00,
  0x44, 0x12, 0x00, 0x00, 0x70, 0x11, 0x00, 0x00, 0xac, 0x10, 0x00, 0x00,
  0x54, 0x0f, 0x00, 0x00, 0x74, 0x0e, 0x00, 0x00, 0xa0, 0x0d, 0x00, 0x00,
  0xa4, 0x0c, 0x00, 0x00, 0xc0, 0x0b, 0x00, 0x00, 0xec, 0x0a, 0x00, 0x00,
  0x28, 0x0a, 0x00, 0x00, 0xfc, 0x08, 0x00, 0x00, 0x18, 0x08, 0x00, 0x00,
  0x44, 0x07, 0x00, 0x00, 0x48, 0x06, 0x00, 0x00, 0x64, 0x05, 0x00, 0x00,
  0x90, 0x04, 0x00, 0x00, 0xcc, 0x03, 0x00, 0x00, 0x00, 0x03, 0x00, 0x00,
  0x28, 0x02, 0x00, 0x00, 0x6c, 0x01, 0x00, 0x00, 0xd4, 0x00, 0x00, 0x00,
  0x01, 0x00, 0x00, 0x00, 0x00, 0x00, 0x00, 0x00, 0x01, 0x00, 0x00, 0x00,
  0x34, 0x00, 0x00, 0x00, 0x19, 0x00, 0x00, 0x00, 0x70, 0x15, 0x00, 0x00,
  0x78, 0x14, 0x00, 0x00, 0x80, 0x13, 0x00, 0x00, 0x74, 0x12, 0x00, 0x00,
  0x9c, 0x11, 0x00, 0x00, 0xc8, 0x10, 0x00, 0x00, 0xd4, 0x0f, 0x00, 0x00,
  0xa0, 0x0e, 0x00, 0x00, 0xcc, 0x0d, 0x00, 0x00, 0xf8, 0x0c, 0x00, 0x00,
  0xf0, 0x0b, 0x00, 0x00, 0x18, 0x0b, 0x00, 0x00, 0x44, 0x0a, 0x00, 0x00,
  0x70, 0x09, 0x00, 0x00, 0x48, 0x08, 0x00, 0x00, 0x70, 0x07, 0x00, 0x00,
  0x9c, 0x06, 0x00, 0x00, 0x94, 0x05, 0x00, 0x00, 0xbc, 0x04, 0x00, 0x00,
  0xe8, 0x03, 0x00, 0x00, 0x14, 0x03, 0x00, 0x00, 0x48, 0x02, 0x00, 0x00,
  0x6c, 0x01, 0x00, 0x00, 0xb4, 0x00, 0x00, 0x00, 0x18, 0x00, 0x00, 0x00,
  0x04, 0x00, 0x00, 0x00, 0x6d, 0x61, 0x69, 0x6e, 0x00, 0x00, 0x0a, 0x00,
  0x10, 0x00, 0x04, 0x00, 0x08, 0x00, 0x0c, 0x00, 0x0a, 0x00, 0x00, 0x00,
  0x07, 0x00, 0x00, 0x00, 0x10, 0x00, 0x00, 0x00, 0x04, 0x00, 0x00, 0x00,
  0x01, 0x00, 0x00, 0x00, 0x34, 0x00, 0x00, 0x00, 0x01, 0x00, 0x00, 0x00,
  0x33, 0x00, 0x00, 0x00, 0xe0, 0xea, 0xff, 0xff, 0x06, 0x00, 0x00, 0x00,
  0x00, 0x00, 0x00, 0x06, 0x02, 0x00, 0x00, 0x00, 0x14, 0x00, 0x18, 0x00,
  0x04, 0x00, 0x00, 0x00, 0x08, 0x00, 0x0c, 0x00, 0x10, 0x00, 0x00, 0x00,
  0x00, 0x00, 0x14, 0x00, 0x14, 0x00, 0x00, 0x00, 0x14, 0x00, 0x00, 0x00,
  0x35, 0x00, 0x00, 0x00, 0x18, 0x00, 0x00, 0x00, 0x40, 0x00, 0x00, 0x00,
  0x30, 0x00, 0x00, 0x00, 0x02, 0x00, 0x00, 0x00, 0x01, 0x00, 0x00, 0x00,
  0x18, 0x00, 0x00, 0x00, 0x19, 0x00, 0x00, 0x00, 0x53, 0x74, 0x61, 0x74,
  0x65, 0x66, 0x75, 0x6c, 0x50, 0x61, 0x72, 0x74, 0x69, 0x74, 0x69, 0x6f,
  0x6e, 0x65, 0x64, 0x43, 0x61, 0x6c, 0x6c, 0x3a, 0x30, 0x00, 0x00, 0x00,
  0x02, 0x00, 0x00, 0x00, 0xff, 0xff, 0xff, 0xff, 0x18, 0x00, 0x00, 0x00,
  0x20, 0xa4, 0xfe, 0xff, 0xa2, 0xec, 0xff, 0xff, 0x00, 0x00, 0x00, 0x09,
  0x06, 0x00, 0x00, 0x00, 0x1c, 0x00, 0x00, 0x00, 0x10, 0x00, 0x00, 0x00,
  0x04, 0x00, 0x00, 0x00, 0x7a, 0xa5, 0xfe, 0xff, 0x00, 0x00, 0x80, 0x3f,
  0x01, 0x00, 0x00, 0x00, 0x33, 0x00, 0x00, 0x00, 0x01, 0x00, 0x00, 0x00,
  0x32, 0x00, 0x00, 0x00, 0x88, 0xeb, 0xff, 0xff, 0x19, 0x00, 0x00, 0x00,
  0x00, 0x00, 0x00, 0x19, 0x02, 0x00, 0x00, 0x00, 0x10, 0xa5, 0xfe, 0xff,
  0x00, 0x00, 0x00, 0x09, 0x14, 0x00, 0x00, 0x00, 0x34, 0x00, 0x00, 0x00,
  0x18, 0x00, 0x00, 0x00, 0x40, 0x00, 0x00, 0x00, 0x30, 0x00, 0x00, 0x00,
  0x02, 0x00, 0x00, 0x00, 0x01, 0x00, 0x00, 0x00, 0x18, 0x00, 0x00, 0x00,
  0x1a, 0x00, 0x00, 0x00, 0x53, 0x74, 0x61, 0x74, 0x65, 0x66, 0x75, 0x6c,
  0x50, 0x61, 0x72, 0x74, 0x69, 0x74, 0x69, 0x6f, 0x6e, 0x65, 0x64, 0x43,
  0x61, 0x6c, 0x6c, 0x3a, 0x30, 0x31, 0x00, 0x00, 0x02, 0x00, 0x00, 0x00,
  0xff, 0xff, 0xff, 0xff, 0x18, 0x00, 0x00, 0x00, 0xe4, 0xa4, 0xfe, 0xff,
  0x08, 0x00, 0x00, 0x00, 0x0c, 0x00, 0x00, 0x00, 0x01, 0x00, 0x00, 0x00,
  0x00, 0x00, 0x80, 0x3b, 0x01, 0x00, 0x00, 0x00, 0x80, 0xff, 0xff, 0xff,
  0xff, 0xff, 0xff, 0xff, 0x56, 0xed, 0xff, 0xff, 0x00, 0x00, 0x00, 0x08,
  0x05, 0x00, 0x00, 0x00, 0x18, 0x00, 0x00, 0x00, 0x0c, 0x00, 0x00, 0x00,
  0x04, 0x00, 0x00, 0x00, 0xf0, 0xa4, 0xfe, 0xff, 0x01, 0x00, 0x00, 0x00,
  0x32, 0x00, 0x00, 0x00, 0x03, 0x00, 0x00, 0x00, 0x31, 0x00, 0x00, 0x00,
  0x1a, 0x00, 0x00, 0x00, 0x1b, 0x00, 0x00, 0x00, 0x40, 0xec, 0xff, 0xff,
  0x09, 0x00, 0x00, 0x00, 0x00, 0x00, 0x00, 0x09, 0x04, 0x00, 0x00, 0x00,
  0xc8, 0xa5, 0xfe, 0xff, 0x00, 0x00, 0x00, 0x09, 0x14, 0x00, 0x00, 0x00,
  0x33, 0x00, 0x00, 0x00, 0x18, 0x00, 0x00, 0x00, 0x60, 0x00, 0x00, 0x00,
  0x50, 0x00, 0x00, 0x00, 0x02, 0x00, 0x00, 0x00, 0x01, 0x00, 0x00, 0x00,
  0x18, 0x00, 0x00, 0x00, 0x38, 0x00, 0x00, 0x00, 0x73, 0x65, 0x71, 0x75,
  0x65, 0x6e, 0x74, 0x69, 0x61, 0x6c, 0x5f, 0x31, 0x2f, 0x64, 0x65, 0x6e,
  0x73, 0x65, 0x5f, 0x31, 0x2f, 0x4d, 0x61, 0x74, 0x4d, 0x75, 0x6c, 0x3b,
  0x73, 0x65, 0x71, 0x75, 0x65, 0x6e, 0x74, 0x69, 0x61, 0x6c, 0x5f, 0x31,
  0x2f, 0x64, 0x65, 0x6e, 0x73, 0x65, 0x5f, 0x31, 0x2f, 0x42, 0x69, 0x61,
  0x73, 0x41, 0x64, 0x64, 0x00, 0x00, 0x00, 0x00, 0x02, 0x00, 0x00, 0x00,
  0xff, 0xff, 0xff, 0xff, 0x18, 0x00, 0x00, 0x00, 0xbc, 0xa5, 0xfe, 0xff,
  0x08, 0x00, 0x00, 0x00, 0x0c, 0x00, 0x00, 0x00, 0x01, 0x00, 0x00, 0x00,
  0x1a, 0x77, 0x04, 0x3e, 0x01, 0x00, 0x00, 0x00, 0xfa, 0xff, 0xff, 0xff,
  0xff, 0xff, 0xff, 0xff, 0x2e, 0xee, 0xff, 0xff, 0x00, 0x00, 0x00, 0x1b,
  0x04, 0x00, 0x00, 0x00, 0x18, 0x00, 0x00, 0x00, 0x0c, 0x00, 0x00, 0x00,
  0x04, 0x00, 0x00, 0x00, 0xc8, 0xa5, 0xfe, 0xff, 0x01, 0x00, 0x00, 0x00,
  0x31, 0x00, 0x00, 0x00, 0x02, 0x00, 0x00, 0x00, 0x30, 0x00, 0x00, 0x00,
  0x01, 0x00, 0x00, 0x00, 0x14, 0xed, 0xff, 0xff, 0x28, 0x00, 0x00, 0x00,
  0x00, 0x00, 0x00, 0x28, 0x02, 0x00, 0x00, 0x00, 0x9c, 0xa6, 0xfe, 0xff,
  0x00, 0x00, 0x00, 0x09, 0x14, 0x00, 0x00, 0x00, 0x32, 0x00, 0x00, 0x00,
  0x18, 0x00, 0x00, 0x00, 0x54, 0x00, 0x00, 0x00, 0x44, 0x00, 0x00, 0x00,
  0x02, 0x00, 0x00, 0x00, 0x01, 0x00, 0x00, 0x00, 0x40, 0x00, 0x00, 0x00,
  0x2c, 0x00, 0x00, 0x00, 0x73, 0x65, 0x71, 0x75, 0x65, 0x6e, 0x74, 0x69,
  0x61, 0x6c, 0x5f, 0x31, 0x2f, 0x67, 0x6c, 0x6f, 0x62, 0x61, 0x6c, 0x5f,
  0x61, 0x76, 0x65, 0x72, 0x61, 0x67, 0x65, 0x5f, 0x70, 0x6f, 0x6f, 0x6c,
  0x69, 0x6e, 0x67, 0x32, 0x64, 0x5f, 0x31, 0x2f, 0x4d, 0x65, 0x61, 0x6e,
  0x00, 0x00, 0x00, 0x00, 0x02, 0x00, 0x00, 0x00, 0xff, 0xff, 0xff, 0xff,
  0x40, 0x00, 0x00, 0x00, 0x84, 0xa6, 0xfe, 0xff, 0x08, 0x00, 0x00, 0x00,
  0x0c, 0x00, 0x00, 0x00, 0x01, 0x00, 0x00, 0x00, 0xb7, 0x71, 0x1e, 0x3d,
  0x01, 0x00, 0x00, 0x00, 0x98, 0xff, 0xff, 0xff, 0xff, 0xff, 0xff, 0xff,
  0xf6, 0xee, 0xff, 0xff, 0x00, 0x00, 0x00, 0x05, 0x03, 0x00, 0x00, 0x00,
  0x2c, 0x00, 0x00, 0x00, 0x20, 0x00, 0x00, 0x00, 0x04, 0x00, 0x00, 0x00,
  0x76, 0xf3, 0xff, 0xff, 0x02, 0x00, 0x00, 0x00, 0x02, 0x00, 0x00, 0x00,
  0x02, 0x00, 0x00, 0x00, 0x02, 0x00, 0x00, 0x00, 0x00, 0x00, 0x00, 0x01,
  0x01, 0x00, 0x00, 0x00, 0x30, 0x00, 0x00, 0x00, 0x01, 0x00, 0x00, 0x00,
  0x2f, 0x00, 0x00, 0x00, 0x64, 0xa7, 0xfe, 0xff, 0x00, 0x00, 0x00, 0x09,
  0x14, 0x00, 0x00, 0x00, 0x31, 0x00, 0x00, 0x00, 0x20, 0x00, 0x00, 0x00,
  0x5c, 0x00, 0x00, 0x00, 0x44, 0x00, 0x00, 0x00, 0x04, 0x00, 0x00, 0x00,
  0x01, 0x00, 0x00, 0x00, 0x02, 0x00, 0x00, 0x00, 0x02, 0x00, 0x00, 0x00,
  0x40, 0x00, 0x00, 0x00, 0x24, 0x00, 0x00, 0x00, 0x73, 0x65, 0x71, 0x75,
  0x65, 0x6e, 0x74, 0x69, 0x61, 0x6c, 0x5f, 0x31, 0x2f, 0x6d, 0x61, 0x78,
  0x5f, 0x70, 0x6f, 0x6f, 0x6c, 0x69, 0x6e, 0x67, 0x32, 0x64, 0x5f, 0x35,
  0x2f, 0x4d, 0x61, 0x78, 0x50, 0x6f, 0x6f, 0x6c, 0x00, 0x00, 0x00, 0x00,
  0x04, 0x00, 0x00, 0x00, 0xff, 0xff, 0xff, 0xff, 0x02, 0x00, 0x00, 0x00,
  0x02, 0x00, 0x00, 0x00, 0x40, 0x00, 0x00, 0x00, 0x54, 0xa7, 0xfe, 0xff,
  0x08, 0x00, 0x00, 0x00, 0x0c, 0x00, 0x00, 0x00, 0x01, 0x00, 0x00, 0x00,
  0x4f, 0xa9, 0x2a, 0x3d, 0x01, 0x00, 0x00, 0x00, 0x97, 0xff, 0xff, 0xff,
  0xff, 0xff, 0xff, 0xff, 0xc6, 0xef, 0xff, 0xff, 0x00, 0x00, 0x00, 0x0b,
  0x02, 0x00, 0x00, 0x00, 0x18, 0x00, 0x00, 0x00, 0x0c, 0x00, 0x00, 0x00,
  0x04, 0x00, 0x00, 0x00, 0x60, 0xa7, 0xfe, 0xff, 0x01, 0x00, 0x00, 0x00,
  0x2f, 0x00, 0x00, 0x00, 0x02, 0x00, 0x00, 0x00, 0x2e, 0x00, 0x00, 0x00,
  0x19, 0x00, 0x00, 0x00, 0x24, 0xa8, 0xfe, 0xff, 0x00, 0x00, 0x00, 0x09,
  0x14, 0x00, 0x00, 0x00, 0x30, 0x00, 0x00, 0x00, 0x20, 0x00, 0x00, 0x00,
  0x6c, 0x00, 0x00, 0x00, 0x54, 0x00, 0x00, 0x00, 0x04, 0x00, 0x00, 0x00,
  0x01, 0x00, 0x00, 0x00, 0x05, 0x00, 0x00, 0x00, 0x05, 0x00, 0x00, 0x00,
  0x40, 0x00, 0x00, 0x00, 0x35, 0x00, 0x00, 0x00, 0x73, 0x65, 0x71, 0x75,
  0x65, 0x6e, 0x74, 0x69, 0x61, 0x6c, 0x5f, 0x31, 0x2f, 0x62, 0x61, 0x74,
  0x63, 0x68, 0x5f, 0x6e, 0x6f, 0x72, 0x6d, 0x61, 0x6c, 0x69, 0x7a, 0x61,
  0x74, 0x69, 0x6f, 0x6e, 0x5f, 0x31, 0x31, 0x2f, 0x46, 0x75, 0x73, 0x65,
  0x64, 0x42, 0x61, 0x74, 0x63, 0x68, 0x4e, 0x6f, 0x72, 0x6d, 0x56, 0x33,
  0x33, 0x00, 0x00, 0x00, 0x04, 0x00, 0x00, 0x00, 0xff, 0xff, 0xff, 0xff,
  0x05, 0x00, 0x00, 0x00, 0x05, 0x00, 0x00, 0x00, 0x40, 0x00, 0x00, 0x00,
  0x24, 0xa8, 0xfe, 0xff, 0x08, 0x00, 0x00, 0x00, 0x0c, 0x00, 0x00, 0x00,
  0x01, 0x00, 0x00, 0x00, 0x4f, 0xa9, 0x2a, 0x3d, 0x01, 0x00, 0x00, 0x00,
  0x97, 0xff, 0xff, 0xff, 0xff, 0xff, 0xff, 0xff, 0x96, 0xf0, 0xff, 0xff,
  0x00, 0x00, 0x00, 0x15, 0x01, 0x00, 0x00, 0x00, 0x18, 0x00, 0x00, 0x00,
  0x0c, 0x00, 0x00, 0x00, 0x04, 0x00, 0x00, 0x00, 0x30, 0xa8, 0xfe, 0xff,
  0x01, 0x00, 0x00, 0x00, 0x2e, 0x00, 0x00, 0x00, 0x02, 0x00, 0x00, 0x00,
  0x2d, 0x00, 0x00, 0x00, 0x18, 0x00, 0x00, 0x00, 0xf4, 0xa8, 0xfe, 0xff,
  0x00, 0x00, 0x00, 0x09, 0x14, 0x00, 0x00, 0x00, 0x2f, 0x00, 0x00, 0x00,
  0x20, 0x00, 0x00, 0x00, 0x6c, 0x00, 0x00, 0x00, 0x54, 0x00, 0x00, 0x00,
  0x04, 0x00, 0x00, 0x00, 0x01, 0x00, 0x00, 0x00, 0x05, 0x00, 0x00, 0x00,
  0x05, 0x00, 0x00, 0x00, 0x40, 0x00, 0x00, 0x00, 0x35, 0x00, 0x00, 0x00,
  0x73, 0x65, 0x71, 0x75, 0x65, 0x6e, 0x74, 0x69, 0x61, 0x6c, 0x5f, 0x31,
  0x2f, 0x62, 0x61, 0x74, 0x63, 0x68, 0x5f, 0x6e, 0x6f, 0x72, 0x6d, 0x61,
  0x6c, 0x69, 0x7a, 0x61, 0x74, 0x69, 0x6f, 0x6e, 0x5f, 0x31, 0x31, 0x2f,
  0x46, 0x75, 0x73, 0x65, 0x64, 0x42, 0x61, 0x74, 0x63, 0x68, 0x4e, 0x6f,
  0x72, 0x6d, 0x56, 0x33, 0x32, 0x00, 0x00, 0x00, 0x04, 0x00, 0x00, 0x00,
  0xff, 0xff, 0xff, 0xff, 0x05, 0x00, 0x00, 0x00, 0x05, 0x00, 0x00, 0x00,
  0x40, 0x00, 0x00, 0x00, 0xf4, 0xa8, 0xfe, 0xff, 0x08, 0x00, 0x00, 0x00,
  0x0c, 0x00, 0x00, 0x00, 0x01, 0x00, 0x00, 0x00, 0xc4, 0x8c, 0x28, 0x3d,
  0x01, 0x00, 0x00, 0x00, 0x80, 0xff, 0xff, 0xff, 0xff, 0xff, 0xff, 0xff,
  0x00, 0x00, 0x00, 0x00, 0x76, 0xf0, 0xff, 0xff, 0x00, 0x00, 0x00, 0x01,
  0x24, 0x00, 0x00, 0x00, 0x18, 0x00, 0x00, 0x00, 0x04, 0x00, 0x00, 0x00,
  0x68, 0xf0, 0xff, 0xff, 0x01, 0x00, 0x00, 0x00, 0x01, 0x00, 0x00, 0x00,
  0x00, 0x00, 0x01, 0x01, 0x01, 0x00, 0x00, 0x00, 0x2d, 0x00, 0x00, 0x00,
  0x03, 0x00, 0x00, 0x00, 0x2c, 0x00, 0x00, 0x00, 0x16, 0x00, 0x00, 0x00,
  0x17, 0x00, 0x00, 0x00, 0xd4, 0xa9, 0xfe, 0xff, 0x00, 0x00, 0x00, 0x09,
  0x14, 0x00, 0x00, 0x00, 0x2e, 0x00, 0x00, 0x00, 0x20, 0x00, 0x00, 0x00,
  0x94, 0x00, 0x00, 0x00, 0x7c, 0x00, 0x00, 0x00, 0x04, 0x00, 0x00, 0x00,
  0x01, 0x00, 0x00, 0x00, 0x05, 0x00, 0x00, 0x00, 0x05, 0x00, 0x00, 0x00,
  0x40, 0x00, 0x00, 0x00, 0x5f, 0x00, 0x00, 0x00, 0x73, 0x65, 0x71, 0x75,
  0x65, 0x6e, 0x74, 0x69, 0x61, 0x6c, 0x5f, 0x31, 0x2f, 0x63, 0x6f, 0x6e,
  0x76, 0x32, 0x64, 0x5f, 0x31, 0x31, 0x2f, 0x52, 0x65, 0x6c, 0x75, 0x3b,
  0x73, 0x65, 0x71, 0x75, 0x65, 0x6e, 0x74, 0x69, 0x61, 0x6c, 0x5f, 0x31,
  0x2f, 0x63, 0x6f, 0x6e, 0x76, 0x32, 0x64, 0x5f, 0x31, 0x31, 0x2f, 0x42,
  0x69, 0x61, 0x73, 0x41, 0x64, 0x64, 0x3b, 0x73, 0x65, 0x71, 0x75, 0x65,
  0x6e, 0x74, 0x69, 0x61, 0x6c, 0x5f, 0x31, 0x2f, 0x63, 0x6f, 0x6e, 0x76,
  0x32, 0x64, 0x5f, 0x31, 0x31, 0x2f, 0x43, 0x6f, 0x6e, 0x76, 0x32, 0x44,
  0x3b, 0x62, 0x69, 0x61, 0x73, 0x5f, 0x35, 0x00, 0x04, 0x00, 0x00, 0x00,
  0xff, 0xff, 0xff, 0xff, 0x05, 0x00, 0x00, 0x00, 0x05, 0x00, 0x00, 0x00,
  0x40, 0x00, 0x00, 0x00, 0xfc, 0xa9, 0xfe, 0xff, 0x08, 0x00, 0x00, 0x00,
  0x0c, 0x00, 0x00, 0x00, 0x01, 0x00, 0x00, 0x00, 0x7d, 0x98, 0x31, 0x3d,
  0x01, 0x00, 0x00, 0x00, 0x80, 0xff, 0xff, 0xff, 0xff, 0xff, 0xff, 0xff,
  0x6e, 0xf2, 0xff, 0xff, 0x00, 0x00, 0x00, 0x0b, 0x02, 0x00, 0x00, 0x00,
  0x18, 0x00, 0x00, 0x00, 0x0c, 0x00, 0x00, 0x00, 0x04, 0x00, 0x00, 0x00,
  0x08, 0xaa, 0xfe, 0xff, 0x01, 0x00, 0x00, 0x00, 0x2c, 0x00, 0x00, 0x00,
  0x02, 0x00, 0x00, 0x00, 0x2b, 0x00, 0x00, 0x00, 0x15, 0x00, 0x00, 0x00,
  0xcc, 0xaa, 0xfe, 0xff, 0x00, 0x00, 0x00, 0x09, 0x14, 0x00, 0x00, 0x00,
  0x2d, 0x00, 0x00, 0x00, 0x20, 0x00, 0x00, 0x00, 0x6c, 0x00, 0x00, 0x00,
  0x54, 0x00, 0x00, 0x00, 0x04, 0x00, 0x00, 0x00, 0x01, 0x00, 0x00, 0x00,
  0x07, 0x00, 0x00, 0x00, 0x07, 0x00, 0x00, 0x00, 0x40, 0x00, 0x00, 0x00,
  0x35, 0x00, 0x00, 0x00, 0x73, 0x65, 0x71, 0x75, 0x65, 0x6e, 0x74, 0x69,
  0x61, 0x6c, 0x5f, 0x31, 0x2f, 0x62, 0x61, 0x74, 0x63, 0x68, 0x5f, 0x6e,
  0x6f, 0x72, 0x6d, 0x61, 0x6c, 0x69, 0x7a, 0x61, 0x74, 0x69, 0x6f, 0x6e,
  0x5f, 0x31, 0x30, 0x2f, 0x46, 0x75, 0x73, 0x65, 0x64, 0x42, 0x61, 0x74,
  0x63, 0x68, 0x4e, 0x6f, 0x72, 0x6d, 0x56, 0x33, 0x33, 0x00, 0x00, 0x00,
  0x04, 0x00, 0x00, 0x00, 0xff, 0xff, 0xff, 0xff, 0x07, 0x00, 0x00, 0x00,
  0x07, 0x00, 0x00, 0x00, 0x40, 0x00, 0x00, 0x00, 0xcc, 0xaa, 0xfe, 0xff,
  0x08, 0x00, 0x00, 0x00, 0x0c, 0x00, 0x00, 0x00, 0x01, 0x00, 0x00, 0x00,
  0xa8, 0x67, 0x0c, 0x3d, 0x01, 0x00, 0x00, 0x00, 0x9b, 0xff, 0xff, 0xff,
  0xff, 0xff, 0xff, 0xff, 0x3e, 0xf3, 0xff, 0xff, 0x00, 0x00, 0x00, 0x15,
  0x01, 0x00, 0x00, 0x00, 0x18, 0x00, 0x00, 0x00, 0x0c, 0x00, 0x00, 0x00,
  0x04, 0x00, 0x00, 0x00, 0xd8, 0xaa, 0xfe, 0xff, 0x01, 0x00, 0x00, 0x00,
  0x2b, 0x00, 0x00, 0x00, 0x02, 0x00, 0x00, 0x00, 0x2a, 0x00, 0x00, 0x00,
  0x14, 0x00, 0x00, 0x00, 0x9c, 0xab, 0xfe, 0xff, 0x00, 0x00, 0x00, 0x09,
  0x14, 0x00, 0x00, 0x00, 0x2c, 0x00, 0x00, 0x00, 0x20, 0x00, 0x00, 0x00,
  0x6c, 0x00, 0x00, 0x00, 0x54, 0x00, 0x00, 0x00, 0x04, 0x00, 0x00, 0x00,
  0x01, 0x00, 0x00, 0x00, 0x07, 0x00, 0x00, 0x00, 0x07, 0x00, 0x00, 0x00,
  0x40, 0x00, 0x00, 0x00, 0x35, 0x00, 0x00, 0x00, 0x73, 0x65, 0x71, 0x75,
  0x65, 0x6e, 0x74, 0x69, 0x61, 0x6c, 0x5f, 0x31, 0x2f, 0x62, 0x61, 0x74,
  0x63, 0x68, 0x5f, 0x6e, 0x6f, 0x72, 0x6d, 0x61, 0x6c, 0x69, 0x7a, 0x61,
  0x74, 0x69, 0x6f, 0x6e, 0x5f, 0x31, 0x30, 0x2f, 0x46, 0x75, 0x73, 0x65,
  0x64, 0x42, 0x61, 0x74, 0x63, 0x68, 0x4e, 0x6f, 0x72, 0x6d, 0x56, 0x33,
  0x32, 0x00, 0x00, 0x00, 0x04, 0x00, 0x00, 0x00, 0xff, 0xff, 0xff, 0xff,
  0x07, 0x00, 0x00, 0x00, 0x07, 0x00, 0x00, 0x00, 0x40, 0x00, 0x00, 0x00,
  0x9c, 0xab, 0xfe, 0xff, 0x08, 0x00, 0x00, 0x00, 0x0c, 0x00, 0x00, 0x00,
  0x01, 0x00, 0x00, 0x00, 0xcf, 0x33, 0x09, 0x3d, 0x01, 0x00, 0x00, 0x00,
  0x80, 0xff, 0xff, 0xff, 0xff, 0xff, 0xff, 0xff, 0x00, 0x00, 0x00, 0x00,
  0x1e, 0xf3, 0xff, 0xff, 0x00, 0x00, 0x00, 0x01, 0x24, 0x00, 0x00, 0x00,
  0x18, 0x00, 0x00, 0x00, 0x04, 0x00, 0x00, 0x00, 0x10, 0xf3, 0xff, 0xff,
  0x01, 0x00, 0x00, 0x00, 0x01, 0x00, 0x00, 0x00, 0x00, 0x00, 0x01, 0x01,
  0x01, 0x00, 0x00, 0x00, 0x2a, 0x00, 0x00, 0x00, 0x03, 0x00, 0x00, 0x00,
  0x29, 0x00, 0x00, 0x00, 0x12, 0x00, 0x00, 0x00, 0x13, 0x00, 0x00, 0x00,
  0x7c, 0xac, 0xfe, 0xff, 0x00, 0x00, 0x00, 0x09, 0x14, 0x00, 0x00, 0x00,
  0x2b, 0x00, 0x00, 0x00, 0x20, 0x00, 0x00, 0x00, 0xb4, 0x00, 0x00, 0x00,
  0x9c, 0x00, 0x00, 0x00, 0x04, 0x00, 0x00, 0x00, 0x01, 0x00, 0x00, 0x00,
  0x07, 0x00, 0x00, 0x00, 0x07, 0x00, 0x00, 0x00, 0x40, 0x00, 0x00, 0x00,
  0x7d, 0x00, 0x00, 0x00, 0x73, 0x65, 0x71, 0x75, 0x65, 0x6e, 0x74, 0x69,
  0x61, 0x6c, 0x5f, 0x31, 0x2f, 0x63, 0x6f, 0x6e, 0x76, 0x32, 0x64, 0x5f,
  0x31, 0x30, 0x2f, 0x52, 0x65, 0x6c, 0x75, 0x3b, 0x73, 0x65, 0x71, 0x75,
  0x65, 0x6e, 0x74, 0x69, 0x61, 0x6c, 0x5f, 0x31, 0x2f, 0x63, 0x6f, 0x6e,
  0x76, 0x32, 0x64, 0x5f, 0x31, 0x30, 0x2f, 0x42, 0x69, 0x61, 0x73, 0x41,
  0x64, 0x64, 0x3b, 0x73, 0x65, 0x71, 0x75, 0x65, 0x6e, 0x74, 0x69, 0x61,
  0x6c, 0x5f, 0x31, 0x2f, 0x63, 0x6f, 0x6e, 0x76, 0x32, 0x64, 0x5f, 0x31,
  0x31, 0x2f, 0x43, 0x6f, 0x6e, 0x76, 0x32, 0x44, 0x3b, 0x73, 0x65, 0x71,
  0x75, 0x65, 0x6e, 0x74, 0x69, 0x61, 0x6c, 0x5f, 0x31, 0x2f, 0x63, 0x6f,
  0x6e, 0x76, 0x32, 0x64, 0x5f, 0x31, 0x30, 0x2f, 0x43, 0x6f, 0x6e, 0x76,
  0x32, 0x44, 0x3b, 0x62, 0x69, 0x61, 0x73, 0x5f, 0x34, 0x00, 0x00, 0x00,
  0x04, 0x00, 0x00, 0x00, 0xff, 0xff, 0xff, 0xff, 0x07, 0x00, 0x00, 0x00,
  0x07, 0x00, 0x00, 0x00, 0x40, 0x00, 0x00, 0x00, 0xc4, 0xac, 0xfe, 0xff,
  0x08, 0x00, 0x00, 0x00, 0x0c, 0x00, 0x00, 0x00, 0x01, 0x00, 0x00, 0x00,
  0x0e, 0xfd, 0x44, 0x3d, 0x01, 0x00, 0x00, 0x00, 0x80, 0xff, 0xff, 0xff,
  0xff, 0xff, 0xff, 0xff, 0x36, 0xf5, 0xff, 0xff, 0x00, 0x00, 0x00, 0x05,
  0x03, 0x00, 0x00, 0x00, 0x2c, 0x00, 0x00, 0x00, 0x20, 0x00, 0x00, 0x00,
  0x04, 0x00, 0x00, 0x00, 0xb6, 0xf9, 0xff, 0xff, 0x02, 0x00, 0x00, 0x00,
  0x02, 0x00, 0x00, 0x00, 0x02, 0x00, 0x00, 0x00, 0x02, 0x00, 0x00, 0x00,
  0x00, 0x00, 0x00, 0x01, 0x01, 0x00, 0x00, 0x00, 0x29, 0x00, 0x00, 0x00,
  0x01, 0x00, 0x00, 0x00, 0x28, 0x00, 0x00, 0x00, 0xa4, 0xad, 0xfe, 0xff,
  0x00, 0x00, 0x00, 0x09, 0x14, 0x00, 0x00, 0x00, 0x2a, 0x00, 0x00, 0x00,
  0x20, 0x00, 0x00, 0x00, 0x5c, 0x00, 0x00, 0x00, 0x44, 0x00, 0x00, 0x00,
  0x04, 0x00, 0x00, 0x00, 0x01, 0x00, 0x00, 0x00, 0x09, 0x00, 0x00, 0x00,
  0x09, 0x00, 0x00, 0x00, 0x20, 0x00, 0x00, 0x00, 0x24, 0x00, 0x00, 0x00,
  0x73, 0x65, 0x71, 0x75, 0x65, 0x6e, 0x74, 0x69, 0x61, 0x6c, 0x5f, 0x31,
  0x2f, 0x6d, 0x61, 0x78, 0x5f, 0x70, 0x6f, 0x6f, 0x6c, 0x69, 0x6e, 0x67,
  0x32, 0x64, 0x5f, 0x34, 0x2f, 0x4d, 0x61, 0x78, 0x50, 0x6f, 0x6f, 0x6c,
  0x00, 0x00, 0x00, 0x00, 0x04, 0x00, 0x00, 0x00, 0xff, 0xff, 0xff, 0xff,
  0x09, 0x00, 0x00, 0x00, 0x09, 0x00, 0x00, 0x00, 0x20, 0x00, 0x00, 0x00,
  0x94, 0xad, 0xfe, 0xff, 0x08, 0x00, 0x00, 0x00, 0x0c, 0x00, 0x00, 0x00,
  0x01, 0x00, 0x00, 0x00, 0x3b, 0xac, 0x27, 0x3d, 0x01, 0x00, 0x00, 0x00,
  0x95, 0xff, 0xff, 0xff, 0xff, 0xff, 0xff, 0xff, 0x06, 0xf6, 0xff, 0xff,
  0x00, 0x00, 0x00, 0x0b, 0x02, 0x00, 0x00, 0x00, 0x18, 0x00, 0x00, 0x00,
  0x0c, 0x00, 0x00, 0x00, 0x04, 0x00, 0x00, 0x00, 0xa0, 0xad, 0xfe, 0xff,
  0x01, 0x00, 0x00, 0x00, 0x28, 0x00, 0x00, 0x00, 0x02, 0x00, 0x00, 0x00,
  0x27, 0x00, 0x00, 0x00, 0x11, 0x00, 0x00, 0x00, 0x64, 0xae, 0xfe, 0xff,
  0x00, 0x00, 0x00, 0x09, 0x14, 0x00, 0x00, 0x00, 0x29, 0x00, 0x00, 0x00,
  0x20, 0x00, 0x00, 0x00, 0x6c, 0x00, 0x00, 0x00, 0x54, 0x00, 0x00, 0x00,
  0x04, 0x00, 0x00, 0x00, 0x01, 0x00, 0x00, 0x00, 0x12, 0x00, 0x00, 0x00,
  0x12, 0x00, 0x00, 0x00, 0x20, 0x00, 0x00, 0x00, 0x34, 0x00, 0x00, 0x00,
  0x73, 0x65, 0x71, 0x75, 0x65, 0x6e, 0x74, 0x69, 0x61, 0x6c, 0x5f, 0x31,
  0x2f, 0x62, 0x61, 0x74, 0x63, 0x68, 0x5f, 0x6e, 0x6f, 0x72, 0x6d, 0x61,
  0x6c, 0x69, 0x7a, 0x61, 0x74, 0x69, 0x6f, 0x6e, 0x5f, 0x39, 0x2f, 0x46,
  0x75, 0x73, 0x65, 0x64, 0x42, 0x61, 0x74, 0x63, 0x68, 0x4e, 0x6f, 0x72,
  0x6d, 0x56, 0x33, 0x33, 0x00, 0x00, 0x00, 0x00, 0x04, 0x00, 0x00, 0x00,
  0xff, 0xff, 0xff, 0xff, 0x12, 0x00, 0x00, 0x00, 0x12, 0x00, 0x00, 0x00,
  0x20, 0x00, 0x00, 0x00, 0x64, 0xae, 0xfe, 0xff, 0x08, 0x00, 0x00, 0x00,
  0x0c, 0x00, 0x00, 0x00, 0x01, 0x00, 0x00, 0x00, 0x3b, 0xac, 0x27, 0x3d,
  0x01, 0x00, 0x00, 0x00, 0x95, 0xff, 0xff, 0xff, 0xff, 0xff, 0xff, 0xff,
  0xd6, 0xf6, 0xff, 0xff, 0x00, 0x00, 0x00, 0x15, 0x01, 0x00, 0x00, 0x00,
  0x18, 0x00, 0x00, 0x00, 0x0c, 0x00, 0x00, 0x00, 0x04, 0x00, 0x00, 0x00,
  0x70, 0xae, 0xfe, 0xff, 0x01, 0x00, 0x00, 0x00, 0x27, 0x00, 0x00, 0x00,
  0x02, 0x00, 0x00, 0x00, 0x26, 0x00, 0x00, 0x00, 0x10, 0x00, 0x00, 0x00,
  0x34, 0xaf, 0xfe, 0xff, 0x00, 0x00, 0x00, 0x09, 0x14, 0x00, 0x00, 0x00,
  0x28, 0x00, 0x00, 0x00, 0x20, 0x00, 0x00, 0x00, 0x6c, 0x00, 0x00, 0x00,
  0x54, 0x00, 0x00, 0x00, 0x04, 0x00, 0x00, 0x00, 0x01, 0x00, 0x00, 0x00,
  0x12, 0x00, 0x00, 0x00, 0x12, 0x00, 0x00, 0x00, 0x20, 0x00, 0x00, 0x00,
  0x34, 0x00, 0x00, 0x00, 0x73, 0x65, 0x71, 0x75, 0x65, 0x6e, 0x74, 0x69,
  0x61, 0x6c, 0x5f, 0x31, 0x2f, 0x62, 0x61, 0x74, 0x63, 0x68, 0x5f, 0x6e,
  0x6f, 0x72, 0x6d, 0x61, 0x6c, 0x69, 0x7a, 0x61, 0x74, 0x69, 0x6f, 0x6e,
  0x5f, 0x39, 0x2f, 0x46, 0x75, 0x73, 0x65, 0x64, 0x42, 0x61, 0x74, 0x63,
  0x68, 0x4e, 0x6f, 0x72, 0x6d, 0x56, 0x33, 0x32, 0x00, 0x00, 0x00, 0x00,
  0x04, 0x00, 0x00, 0x00, 0xff, 0xff, 0xff, 0xff, 0x12, 0x00, 0x00, 0x00,
  0x12, 0x00, 0x00, 0x00, 0x20, 0x00, 0x00, 0x00, 0x34, 0xaf, 0xfe, 0xff,
  0x08, 0x00, 0x00, 0x00, 0x0c, 0x00, 0x00, 0x00, 0x01, 0x00, 0x00, 0x00,
  0x73, 0xd8, 0x22, 0x3d, 0x01, 0x00, 0x00, 0x00, 0x80, 0xff, 0xff, 0xff,
  0xff, 0xff, 0xff, 0xff, 0x00, 0x00, 0x00, 0x00, 0xb6, 0xf6, 0xff, 0xff,
  0x00, 0x00, 0x00, 0x01, 0x24, 0x00, 0x00, 0x00, 0x18, 0x00, 0x00, 0x00,
  0x04, 0x00, 0x00, 0x00, 0xa8, 0xf6, 0xff, 0xff, 0x01, 0x00, 0x00, 0x00,
  0x01, 0x00, 0x00, 0x00, 0x00, 0x00, 0x01, 0x01, 0x01, 0x00, 0x00, 0x00,
  0x26, 0x00, 0x00, 0x00, 0x03, 0x00, 0x00, 0x00, 0x25, 0x00, 0x00, 0x00,
  0x0e, 0x00, 0x00, 0x00, 0x0f, 0x00, 0x00, 0x00, 0x14, 0xb0, 0xfe, 0xff,
  0x00, 0x00, 0x00, 0x09, 0x14, 0x00, 0x00, 0x00, 0x27, 0x00, 0x00, 0x00,
  0x20, 0x00, 0x00, 0x00, 0x94, 0x00, 0x00, 0x00, 0x7c, 0x00, 0x00, 0x00,
  0x04, 0x00, 0x00, 0x00, 0x01, 0x00, 0x00, 0x00, 0x12, 0x00, 0x00, 0x00,
  0x12, 0x00, 0x00, 0x00, 0x20, 0x00, 0x00, 0x00, 0x5c, 0x00, 0x00, 0x00,
  0x73, 0x65, 0x71, 0x75, 0x65, 0x6e, 0x74, 0x69, 0x61, 0x6c, 0x5f, 0x31,
  0x2f, 0x63, 0x6f, 0x6e, 0x76, 0x32, 0x64, 0x5f, 0x39, 0x2f, 0x52, 0x65,
  0x6c, 0x75, 0x3b, 0x73, 0x65, 0x71, 0x75, 0x65, 0x6e, 0x74, 0x69, 0x61,
  0x6c, 0x5f, 0x31, 0x2f, 0x63, 0x6f, 0x6e, 0x76, 0x32, 0x64, 0x5f, 0x39,
  0x2f, 0x42, 0x69, 0x61, 0x73, 0x41, 0x64, 0x64, 0x3b, 0x73, 0x65, 0x71,
  0x75, 0x65, 0x6e, 0x74, 0x69, 0x61, 0x6c, 0x5f, 0x31, 0x2f, 0x63, 0x6f,
  0x6e, 0x76, 0x32, 0x64, 0x5f, 0x39, 0x2f, 0x43, 0x6f, 0x6e, 0x76, 0x32,
  0x44, 0x3b, 0x62, 0x69, 0x61, 0x73, 0x5f, 0x33, 0x00, 0x00, 0x00, 0x00,
  0x04, 0x00, 0x00, 0x00, 0xff, 0xff, 0xff, 0xff, 0x12, 0x00, 0x00, 0x00,
  0x12, 0x00, 0x00, 0x00, 0x20, 0x00, 0x00, 0x00, 0x3c, 0xb0, 0xfe, 0xff,
  0x08, 0x00, 0x00, 0x00, 0x0c, 0x00, 0x00, 0x00, 0x01, 0x00, 0x00, 0x00,
  0x01, 0x49, 0x3b, 0x3d, 0x01, 0x00, 0x00, 0x00, 0x80, 0xff, 0xff, 0xff,
  0xff, 0xff, 0xff, 0xff, 0xae, 0xf8, 0xff, 0xff, 0x00, 0x00, 0x00, 0x0b,
  0x02, 0x00, 0x00, 0x00, 0x18, 0x00, 0x00, 0x00, 0x0c, 0x00, 0x00, 0x00,
  0x04, 0x00, 0x00, 0x00, 0x48, 0xb0, 0xfe, 0xff, 0x01, 0x00, 0x00, 0x00,
  0x25, 0x00, 0x00, 0x00, 0x02, 0x00, 0x00, 0x00, 0x24, 0x00, 0x00, 0x00,
  0x0d, 0x00, 0x00, 0x00, 0x0c, 0xb1, 0xfe, 0xff, 0x00, 0x00, 0x00, 0x09,
  0x14, 0x00, 0x00, 0x00, 0x26, 0x00, 0x00, 0x00, 0x20, 0x00, 0x00, 0x00,
  0x6c, 0x00, 0x00, 0x00, 0x54, 0x00, 0x00, 0x00, 0x04, 0x00, 0x00, 0x00,
  0x01, 0x00, 0x00, 0x00, 0x14, 0x00, 0x00, 0x00, 0x14, 0x00, 0x00, 0x00,
  0x20, 0x00, 0x00, 0x00, 0x34, 0x00, 0x00, 0x00, 0x73, 0x65, 0x71, 0x75,
  0x65, 0x6e, 0x74, 0x69, 0x61, 0x6c, 0x5f, 0x31, 0x2f, 0x62, 0x61, 0x74,
  0x63, 0x68, 0x5f, 0x6e, 0x6f, 0x72, 0x6d, 0x61, 0x6c, 0x69, 0x7a, 0x61,
  0x74, 0x69, 0x6f, 0x6e, 0x5f, 0x38, 0x2f, 0x46, 0x75, 0x73, 0x65, 0x64,
  0x42, 0x61, 0x74, 0x63, 0x68, 0x4e, 0x6f, 0x72, 0x6d, 0x56, 0x33, 0x33,
  0x00, 0x00, 0x00, 0x00, 0x04, 0x00, 0x00, 0x00, 0xff, 0xff, 0xff, 0xff,
  0x14, 0x00, 0x00, 0x00, 0x14, 0x00, 0x00, 0x00, 0x20, 0x00, 0x00, 0x00,
  0x0c, 0xb1, 0xfe, 0xff, 0x08, 0x00, 0x00, 0x00, 0x0c, 0x00, 0x00, 0x00,
  0x01, 0x00, 0x00, 0x00, 0xfd, 0x3b, 0x2a, 0x3d, 0x01, 0x00, 0x00, 0x00,
  0x93, 0xff, 0xff, 0xff, 0xff, 0xff, 0xff, 0xff, 0x7e, 0xf9, 0xff, 0xff,
  0x00, 0x00, 0x00, 0x15, 0x01, 0x00, 0x00, 0x00, 0x18, 0x00, 0x00, 0x00,
  0x0c, 0x00, 0x00, 0x00, 0x04, 0x00, 0x00, 0x00, 0x18, 0xb1, 0xfe, 0xff,
  0x01, 0x00, 0x00, 0x00, 0x24, 0x00, 0x00, 0x00, 0x02, 0x00, 0x00, 0x00,
  0x23, 0x00, 0x00, 0x00, 0x0c, 0x00, 0x00, 0x00, 0xdc, 0xb1, 0xfe, 0xff,
  0x00, 0x00, 0x00, 0x09, 0x14, 0x00, 0x00, 0x00, 0x25, 0x00, 0x00, 0x00,
  0x20, 0x00, 0x00, 0x00, 0x6c, 0x00, 0x00, 0x00, 0x54, 0x00, 0x00, 0x00,
  0x04, 0x00, 0x00, 0x00, 0x01, 0x00, 0x00, 0x00, 0x14, 0x00, 0x00, 0x00,
  0x14, 0x00, 0x00, 0x00, 0x20, 0x00, 0x00, 0x00, 0x34, 0x00, 0x00, 0x00,
  0x73, 0x65, 0x71, 0x75, 0x65, 0x6e, 0x74, 0x69, 0x61, 0x6c, 0x5f, 0x31,
  0x2f, 0x62, 0x61, 0x74, 0x63, 0x68, 0x5f, 0x6e, 0x6f, 0x72, 0x6d, 0x61,
  0x6c, 0x69, 0x7a, 0x61, 0x74, 0x69, 0x6f, 0x6e, 0x5f, 0x38, 0x2f, 0x46,
  0x75, 0x73, 0x65, 0x64, 0x42, 0x61, 0x74, 0x63, 0x68, 0x4e, 0x6f, 0x72,
  0x6d, 0x56, 0x33, 0x32, 0x00, 0x00, 0x00, 0x00, 0x04, 0x00, 0x00, 0x00,
  0xff, 0xff, 0xff, 0xff, 0x14, 0x00, 0x00, 0x00, 0x14, 0x00, 0x00, 0x00,
  0x20, 0x00, 0x00, 0x00, 0xdc, 0xb1, 0xfe, 0xff, 0x08, 0x00, 0x00, 0x00,
  0x0c, 0x00, 0x00, 0x00, 0x01, 0x00, 0x00, 0x00, 0xa2, 0x40, 0x27, 0x3d,
  0x01, 0x00, 0x00, 0x00, 0x80, 0xff, 0xff, 0xff, 0xff, 0xff, 0xff, 0xff,
  0x5a, 0xf9, 0xff, 0xff, 0x00, 0x00, 0x00, 0x01, 0x24, 0x00, 0x00, 0x00,
  0x18, 0x00, 0x00, 0x00, 0x04, 0x00, 0x00, 0x00, 0x4c, 0xf9, 0xff, 0xff,
  0x01, 0x00, 0x00, 0x00, 0x01, 0x00, 0x00, 0x00, 0x00, 0x00, 0x01, 0x01,
  0x01, 0x00, 0x00, 0x00, 0x23, 0x00, 0x00, 0x00, 0x03, 0x00, 0x00, 0x00,
  0x22, 0x00, 0x00, 0x00, 0x0a, 0x00, 0x00, 0x00, 0x0b, 0x00, 0x00, 0x00,
  0xb8, 0xb2, 0xfe, 0xff, 0x00, 0x00, 0x00, 0x09, 0x14, 0x00, 0x00, 0x00,
  0x24, 0x00, 0x00, 0x00, 0x20, 0x00, 0x00, 0x00, 0xb0, 0x00, 0x00, 0x00,
  0x98, 0x00, 0x00, 0x00, 0x04, 0x00, 0x00, 0x00, 0x01, 0x00, 0x00, 0x00,
  0x14, 0x00, 0x00, 0x00, 0x14, 0x00, 0x00, 0x00, 0x20, 0x00, 0x00, 0x00,
  0x79, 0x00, 0x00, 0x00, 0x73, 0x65, 0x71, 0x75, 0x65, 0x6e, 0x74, 0x69,
  0x61, 0x6c, 0x5f, 0x31, 0x2f, 0x63, 0x6f, 0x6e, 0x76, 0x32, 0x64, 0x5f,
  0x38, 0x2f, 0x52, 0x65, 0x6c, 0x75, 0x3b, 0x73, 0x65, 0x71, 0x75, 0x65,
  0x6e, 0x74, 0x69, 0x61, 0x6c, 0x5f, 0x31, 0x2f, 0x63, 0x6f, 0x6e, 0x76,
  0x32, 0x64, 0x5f, 0x38, 0x2f, 0x42, 0x69, 0x61, 0x73, 0x41, 0x64, 0x64,
  0x3b, 0x73, 0x65, 0x71, 0x75, 0x65, 0x6e, 0x74, 0x69, 0x61, 0x6c, 0x5f,
  0x31, 0x2f, 0x63, 0x6f, 0x6e, 0x76, 0x32, 0x64, 0x5f, 0x39, 0x2f, 0x43,
  0x6f, 0x6e, 0x76, 0x32, 0x44, 0x3b, 0x73, 0x65, 0x71, 0x75, 0x65, 0x6e,
  0x74, 0x69, 0x61, 0x6c, 0x5f, 0x31, 0x2f, 0x63, 0x6f, 0x6e, 0x76, 0x32,
  0x64, 0x5f, 0x38, 0x2f, 0x43, 0x6f, 0x6e, 0x76, 0x32, 0x44, 0x3b, 0x62,
  0x69, 0x61, 0x73, 0x5f, 0x32, 0x00, 0x00, 0x00, 0x04, 0x00, 0x00, 0x00,
  0xff, 0xff, 0xff, 0xff, 0x14, 0x00, 0x00, 0x00, 0x14, 0x00, 0x00, 0x00,
  0x20, 0x00, 0x00, 0x00, 0xfc, 0xb2, 0xfe, 0xff, 0x08, 0x00, 0x00, 0x00,
  0x0c, 0x00, 0x00, 0x00, 0x01, 0x00, 0x00, 0x00, 0x2c, 0x82, 0x6a, 0x3d,
  0x01, 0x00, 0x00, 0x00, 0x80, 0xff, 0xff, 0xff, 0xff, 0xff, 0xff, 0xff,
  0x00, 0x00, 0x0e, 0x00, 0x1a, 0x00, 0x08, 0x00, 0x0c, 0x00, 0x10, 0x00,
  0x07, 0x00, 0x14, 0x00, 0x0e, 0x00, 0x00, 0x00, 0x00, 0x00, 0x00, 0x05,
  0x03, 0x00, 0x00, 0x00, 0x3c, 0x00, 0x00, 0x00, 0x30, 0x00, 0x00, 0x00,
  0x14, 0x00, 0x00, 0x00, 0x00, 0x00, 0x0e, 0x00, 0x18, 0x00, 0x17, 0x00,
  0x10, 0x00, 0x0c, 0x00, 0x08, 0x00, 0x04, 0x00, 0x0e, 0x00, 0x00, 0x00,
  0x02, 0x00, 0x00, 0x00, 0x02, 0x00, 0x00, 0x00, 0x02, 0x00, 0x00, 0x00,
  0x02, 0x00, 0x00, 0x00, 0x00, 0x00, 0x00, 0x01, 0x01, 0x00, 0x00, 0x00,
  0x22, 0x00, 0x00, 0x00, 0x01, 0x00, 0x00, 0x00, 0x21, 0x00, 0x00, 0x00,
  0x84, 0xfa, 0xff, 0xff, 0x11, 0x00, 0x00, 0x00, 0x00, 0x00, 0x00, 0x11,
  0x02, 0x00, 0x00, 0x00, 0x0c, 0xb4, 0xfe, 0xff, 0x00, 0x00, 0x00, 0x09,
  0x14, 0x00, 0x00, 0x00, 0x23, 0x00, 0x00, 0x00, 0x20, 0x00, 0x00, 0x00,
  0x5c, 0x00, 0x00, 0x00, 0x44, 0x00, 0x00, 0x00, 0x04, 0x00, 0x00, 0x00,
  0x01, 0x00, 0x00, 0x00, 0x16, 0x00, 0x00, 0x00, 0x16, 0x00, 0x00, 0x00,
  0x10, 0x00, 0x00, 0x00, 0x24, 0x00, 0x00, 0x00, 0x73, 0x65, 0x71, 0x75,
  0x65, 0x6e, 0x74, 0x69, 0x61, 0x6c, 0x5f, 0x31, 0x2f, 0x6d, 0x61, 0x78,
  0x5f, 0x70, 0x6f, 0x6f, 0x6c, 0x69, 0x6e, 0x67, 0x32, 0x64, 0x5f, 0x33,
  0x2f, 0x4d, 0x61, 0x78, 0x50, 0x6f, 0x6f, 0x6c, 0x00, 0x00, 0x00, 0x00,
  0x04, 0x00, 0x00, 0x00, 0xff, 0xff, 0xff, 0xff, 0x16, 0x00, 0x00, 0x00,
  0x16, 0x00, 0x00, 0x00, 0x10, 0x00, 0x00, 0x00, 0xfc, 0xb3, 0xfe, 0xff,
  0x08, 0x00, 0x00, 0x00, 0x0c, 0x00, 0x00, 0x00, 0x01, 0x00, 0x00, 0x00,
  0xa9, 0x74, 0x84, 0x3d, 0x01, 0x00, 0x00, 0x00, 0x91, 0xff, 0xff, 0xff,
  0xff, 0xff, 0xff, 0xff, 0x6e, 0xfc, 0xff, 0xff, 0x00, 0x00, 0x00, 0x0b,
  0x02, 0x00, 0x00, 0x00, 0x18, 0x00, 0x00, 0x00, 0x0c, 0x00, 0x00, 0x00,
  0x04, 0x00, 0x00, 0x00, 0x08, 0xb4, 0xfe, 0xff, 0x01, 0x00, 0x00, 0x00,
  0x21, 0x00, 0x00, 0x00, 0x02, 0x00, 0x00, 0x00, 0x20, 0x00, 0x00, 0x00,
  0x09, 0x00, 0x00, 0x00, 0xcc, 0xb4, 0xfe, 0xff, 0x00, 0x00, 0x00, 0x09,
  0x14, 0x00, 0x00, 0x00, 0x22, 0x00, 0x00, 0x00, 0x20, 0x00, 0x00, 0x00,
  0x6c, 0x00, 0x00, 0x00, 0x54, 0x00, 0x00, 0x00, 0x04, 0x00, 0x00, 0x00,
  0x01, 0x00, 0x00, 0x00, 0x2c, 0x00, 0x00, 0x00, 0x2c, 0x00, 0x00, 0x00,
  0x10, 0x00, 0x00, 0x00, 0x34, 0x00, 0x00, 0x00, 0x73, 0x65, 0x71, 0x75,
  0x65, 0x6e, 0x74, 0x69, 0x61, 0x6c, 0x5f, 0x31, 0x2f, 0x62, 0x61, 0x74,
  0x63, 0x68, 0x5f, 0x6e, 0x6f, 0x72, 0x6d, 0x61, 0x6c, 0x69, 0x7a, 0x61,
  0x74, 0x69, 0x6f, 0x6e, 0x5f, 0x37, 0x2f, 0x46, 0x75, 0x73, 0x65, 0x64,
  0x42, 0x61, 0x74, 0x63, 0x68, 0x4e, 0x6f, 0x72, 0x6d, 0x56, 0x33, 0x33,
  0x00, 0x00, 0x00, 0x00, 0x04, 0x00, 0x00, 0x00, 0xff, 0xff, 0xff, 0xff,
  0x2c, 0x00, 0x00, 0x00, 0x2c, 0x00, 0x00, 0x00, 0x10, 0x00, 0x00, 0x00,
  0xcc, 0xb4, 0xfe, 0xff, 0x08, 0x00, 0x00, 0x00, 0x0c, 0x00, 0x00, 0x00,
  0x01, 0x00, 0x00, 0x00, 0xa9, 0x74, 0x84, 0x3d, 0x01, 0x00, 0x00, 0x00,
  0x91, 0xff, 0xff, 0xff, 0xff, 0xff, 0xff, 0xff, 0x3e, 0xfd, 0xff, 0xff,
  0x00, 0x00, 0x00, 0x15, 0x01, 0x00, 0x00, 0x00, 0x18, 0x00, 0x00, 0x00,
  0x0c, 0x00, 0x00, 0x00, 0x04, 0x00, 0x00, 0x00, 0xd8, 0xb4, 0xfe, 0xff,
  0x01, 0x00, 0x00, 0x00, 0x20, 0x00, 0x00, 0x00, 0x02, 0x00, 0x00, 0x00,
  0x1f, 0x00, 0x00, 0x00, 0x08, 0x00, 0x00, 0x00, 0x9c, 0xb5, 0xfe, 0xff,
  0x00, 0x00, 0x00, 0x09, 0x14, 0x00, 0x00, 0x00, 0x21, 0x00, 0x00, 0x00,
  0x20, 0x00, 0x00, 0x00, 0x6c, 0x00, 0x00, 0x00, 0x54, 0x00, 0x00, 0x00,
  0x04, 0x00, 0x00, 0x00, 0x01, 0x00, 0x00, 0x00, 0x2c, 0x00, 0x00, 0x00,
  0x2c, 0x00, 0x00, 0x00, 0x10, 0x00, 0x00, 0x00, 0x34, 0x00, 0x00, 0x00,
  0x73, 0x65, 0x71, 0x75, 0x65, 0x6e, 0x74, 0x69, 0x61, 0x6c, 0x5f, 0x31,
  0x2f, 0x62, 0x61, 0x74, 0x63, 0x68, 0x5f, 0x6e, 0x6f, 0x72, 0x6d, 0x61,
  0x6c, 0x69, 0x7a, 0x61, 0x74, 0x69, 0x6f, 0x6e, 0x5f, 0x37, 0x2f, 0x46,
  0x75, 0x73, 0x65, 0x64, 0x42, 0x61, 0x74, 0x63, 0x68, 0x4e, 0x6f, 0x72,
  0x6d, 0x56, 0x33, 0x32, 0x00, 0x00, 0x00, 0x00, 0x04, 0x00, 0x00, 0x00,
  0xff, 0xff, 0xff, 0xff, 0x2c, 0x00, 0x00, 0x00, 0x2c, 0x00, 0x00, 0x00,
  0x10, 0x00, 0x00, 0x00, 0x9c, 0xb5, 0xfe, 0xff, 0x08, 0x00, 0x00, 0x00,
  0x0c, 0x00, 0x00, 0x00, 0x01, 0x00, 0x00, 0x00, 0x62, 0x8b, 0x7f, 0x3d,
  0x01, 0x00, 0x00, 0x00, 0x80, 0xff, 0xff, 0xff, 0xff, 0xff, 0xff, 0xff,
  0x00, 0x00, 0x00, 0x00, 0x1e, 0xfd, 0xff, 0xff, 0x00, 0x00, 0x00, 0x01,
  0x24, 0x00, 0x00, 0x00, 0x18, 0x00, 0x00, 0x00, 0x04, 0x00, 0x00, 0x00,
  0x10, 0xfd, 0xff, 0xff, 0x01, 0x00, 0x00, 0x00, 0x01, 0x00, 0x00, 0x00,
  0x00, 0x00, 0x01, 0x01, 0x01, 0x00, 0x00, 0x00, 0x1f, 0x00, 0x00, 0x00,
  0x03, 0x00, 0x00, 0x00, 0x1e, 0x00, 0x00, 0x00, 0x06, 0x00, 0x00, 0x00,
  0x07, 0x00, 0x00, 0x00, 0x7c, 0xb6, 0xfe, 0xff, 0x00, 0x00, 0x00, 0x09,
  0x14, 0x00, 0x00, 0x00, 0x20, 0x00, 0x00, 0x00, 0x20, 0x00, 0x00, 0x00,
  0x94, 0x00, 0x00, 0x00, 0x7c, 0x00, 0x00, 0x00, 0x04, 0x00, 0x00, 0x00,
  0x01, 0x00, 0x00, 0x00, 0x2c, 0x00, 0x00, 0x00, 0x2c, 0x00, 0x00, 0x00,
  0x10, 0x00, 0x00, 0x00, 0x5c, 0x00, 0x00, 0x00, 0x73, 0x65, 0x71, 0x75,
  0x65, 0x6e, 0x74, 0x69, 0x61, 0x6c, 0x5f, 0x31, 0x2f, 0x63, 0x6f, 0x6e,
  0x76, 0x32, 0x64, 0x5f, 0x37, 0x2f, 0x52, 0x65, 0x6c, 0x75, 0x3b, 0x73,
  0x65, 0x71, 0x75, 0x65, 0x6e, 0x74, 0x69, 0x61, 0x6c, 0x5f, 0x31, 0x2f,
  0x63, 0x6f, 0x6e, 0x76, 0x32, 0x64, 0x5f, 0x37, 0x2f, 0x42, 0x69, 0x61,
  0x73, 0x41, 0x64, 0x64, 0x3b, 0x73, 0x65, 0x71, 0x75, 0x65, 0x6e, 0x74,
  0x69, 0x61, 0x6c, 0x5f, 0x31, 0x2f, 0x63, 0x6f, 0x6e, 0x76, 0x32, 0x64,
  0x5f, 0x37, 0x2f, 0x43, 0x6f, 0x6e, 0x76, 0x32, 0x44, 0x3b, 0x62, 0x69,
  0x61, 0x73, 0x5f, 0x31, 0x00, 0x00, 0x00, 0x00, 0x04, 0x00, 0x00, 0x00,
  0xff, 0xff, 0xff, 0xff, 0x2c, 0x00, 0x00, 0x00, 0x2c, 0x00, 0x00, 0x00,
  0x10, 0x00, 0x00, 0x00, 0xa4, 0xb6, 0xfe, 0xff, 0x08, 0x00, 0x00, 0x00,
  0x0c, 0x00, 0x00, 0x00, 0x01, 0x00, 0x00, 0x00, 0x49, 0x07, 0x92, 0x3c,
  0x01, 0x00, 0x00, 0x00, 0x80, 0xff, 0xff, 0xff, 0xff, 0xff, 0xff, 0xff,
  0x00, 0x00, 0x00, 0x00, 0x1a, 0xff, 0xff, 0xff, 0x00, 0x00, 0x00, 0x0b,
  0x02, 0x00, 0x00, 0x00, 0x18, 0x00, 0x00, 0x00, 0x0c, 0x00, 0x00, 0x00,
  0x04, 0x00, 0x00, 0x00, 0xb4, 0xb6, 0xfe, 0xff, 0x01, 0x00, 0x00, 0x00,
  0x1e, 0x00, 0x00, 0x00, 0x02, 0x00, 0x00, 0x00, 0x1d, 0x00, 0x00, 0x00,
  0x05, 0x00, 0x00, 0x00, 0x00, 0x00, 0x0a, 0x00, 0x08, 0x00, 0x00, 0x00,
  0x00, 0x00, 0x04, 0x00, 0x0a, 0x00, 0x00, 0x00, 0x02, 0x00, 0x00, 0x00,
  0x8c, 0xb7, 0xfe, 0xff, 0x00, 0x00, 0x00, 0x09, 0x14, 0x00, 0x00, 0x00,
  0x1f, 0x00, 0x00, 0x00, 0x20, 0x00, 0x00, 0x00, 0x6c, 0x00, 0x00, 0x00,
  0x54, 0x00, 0x00, 0x00, 0x04, 0x00, 0x00, 0x00, 0x01, 0x00, 0x00, 0x00,
  0x2e, 0x00, 0x00, 0x00, 0x2e, 0x00, 0x00, 0x00, 0x10, 0x00, 0x00, 0x00,
  0x34, 0x00, 0x00, 0x00, 0x73, 0x65, 0x71, 0x75, 0x65, 0x6e, 0x74, 0x69,
  0x61, 0x6c, 0x5f, 0x31, 0x2f, 0x62, 0x61, 0x74, 0x63, 0x68, 0x5f, 0x6e,
  0x6f, 0x72, 0x6d, 0x61, 0x6c, 0x69, 0x7a, 0x61, 0x74, 0x69, 0x6f, 0x6e,
  0x5f, 0x36, 0x2f, 0x46, 0x75, 0x73, 0x65, 0x64, 0x42, 0x61, 0x74, 0x63,
  0x68, 0x4e, 0x6f, 0x72, 0x6d, 0x56, 0x33, 0x33, 0x00, 0x00, 0x00, 0x00,
  0x04, 0x00, 0x00, 0x00, 0xff, 0xff, 0xff, 0xff, 0x2e, 0x00, 0x00, 0x00,
  0x2e, 0x00, 0x00, 0x00, 0x10, 0x00, 0x00, 0x00, 0x8c, 0xb7, 0xfe, 0xff,
  0x08, 0x00, 0x00, 0x00, 0x0c, 0x00, 0x00, 0x00, 0x01, 0x00, 0x00, 0x00,
  0x12, 0x45, 0x36, 0x3d, 0x01, 0x00, 0x00, 0x00, 0xa9, 0xff, 0xff, 0xff,
  0xff, 0xff, 0xff, 0xff, 0x00, 0x00, 0x0e, 0x00, 0x18, 0x00, 0x08, 0x00,
  0x0c, 0x00, 0x10, 0x00, 0x07, 0x00, 0x14, 0x00, 0x0e, 0x00, 0x00, 0x00,
  0x00, 0x00, 0x00, 0x15, 0x01, 0x00, 0x00, 0x00, 0x18, 0x00, 0x00, 0x00,
  0x0c, 0x00, 0x00, 0x00, 0x04, 0x00, 0x00, 0x00, 0xa8, 0xb7, 0xfe, 0xff,
  0x01, 0x00, 0x00, 0x00, 0x1d, 0x00, 0x00, 0x00, 0x02, 0x00, 0x00, 0x00,
  0x1c, 0x00, 0x00, 0x00, 0x04, 0x00, 0x00, 0x00, 0xf4, 0xfe, 0xff, 0xff,
  0x12, 0x00, 0x00, 0x00, 0x00, 0x00, 0x00, 0x12, 0x02, 0x00, 0x00, 0x00,
  0x7c, 0xb8, 0xfe, 0xff, 0x00, 0x00, 0x00, 0x09, 0x14, 0x00, 0x00, 0x00,
  0x1e, 0x00, 0x00, 0x00, 0x20, 0x00, 0x00, 0x00, 0x6c, 0x00, 0x00, 0x00,
  0x54, 0x00, 0x00, 0x00, 0x04, 0x00, 0x00, 0x00, 0x01, 0x00, 0x00, 0x00,
  0x2e, 0x00, 0x00, 0x00, 0x2e, 0x00, 0x00, 0x00, 0x10, 0x00, 0x00, 0x00,
  0x34, 0x00, 0x00, 0x00, 0x73, 0x65, 0x71, 0x75, 0x65, 0x6e, 0x74, 0x69,
  0x61, 0x6c, 0x5f, 0x31, 0x2f, 0x62, 0x61, 0x74, 0x63, 0x68, 0x5f, 0x6e,
  0x6f, 0x72, 0x6d, 0x61, 0x6c, 0x69, 0x7a, 0x61, 0x74, 0x69, 0x6f, 0x6e,
  0x5f, 0x36, 0x2f, 0x46, 0x75, 0x73, 0x65, 0x64, 0x42, 0x61, 0x74, 0x63,
  0x68, 0x4e, 0x6f, 0x72, 0x6d, 0x56, 0x33, 0x32, 0x00, 0x00, 0x00, 0x00,
  0x04, 0x00, 0x00, 0x00, 0xff, 0xff, 0xff, 0xff, 0x2e, 0x00, 0x00, 0x00,
  0x2e, 0x00, 0x00, 0x00, 0x10, 0x00, 0x00, 0x00, 0x7c, 0xb8, 0xfe, 0xff,
  0x08, 0x00, 0x00, 0x00, 0x0c, 0x00, 0x00, 0x00, 0x01, 0x00, 0x00, 0x00,
  0x50, 0x8f, 0x1b, 0x3d, 0x01, 0x00, 0x00, 0x00, 0x80, 0xff, 0xff, 0xff,
  0xff, 0xff, 0xff, 0xff, 0x00, 0x00, 0x00, 0x00, 0x00, 0x00, 0x0e, 0x00,
  0x14, 0x00, 0x00, 0x00, 0x08, 0x00, 0x0c, 0x00, 0x07, 0x00, 0x10, 0x00,
  0x0e, 0x00, 0x00, 0x00, 0x00, 0x00, 0x00, 0x01, 0x30, 0x00, 0x00, 0x00,
  0x24, 0x00, 0x00, 0x00, 0x10, 0x00, 0x00, 0x00, 0x0c, 0x00, 0x10, 0x00,
  0x0e, 0x00, 0x04, 0x00, 0x08, 0x00, 0x0f, 0x00, 0x0c, 0x00, 0x00, 0x00,
  0x01, 0x00, 0x00, 0x00, 0x01, 0x00, 0x00, 0x00, 0x00, 0x00, 0x01, 0x01,
  0x01, 0x00, 0x00, 0x00, 0x1c, 0x00, 0x00, 0x00, 0x03, 0x00, 0x00, 0x00,
  0x00, 0x00, 0x00, 0x00, 0x02, 0x00, 0x00, 0x00, 0x03, 0x00, 0x00, 0x00,
  0x0c, 0x00, 0x10, 0x00, 0x0b, 0x00, 0x00, 0x00, 0x0c, 0x00, 0x04, 0x00,
  0x0c, 0x00, 0x00, 0x00, 0x03, 0x00, 0x00, 0x00, 0x00, 0x00, 0x00, 0x03,
  0x03, 0x00, 0x00, 0x00, 0x94, 0xb9, 0xfe, 0xff, 0x00, 0x00, 0x00, 0x09,
  0x14, 0x00, 0x00, 0x00, 0x1d, 0x00, 0x00, 0x00, 0x20, 0x00, 0x00, 0x00,
  0xac, 0x00, 0x00, 0x00, 0x94, 0x00, 0x00, 0x00, 0x04, 0x00, 0x00, 0x00,
  0x01, 0x00, 0x00, 0x00, 0x2e, 0x00, 0x00, 0x00, 0x2e, 0x00, 0x00, 0x00,
  0x10, 0x00, 0x00, 0x00, 0x77, 0x00, 0x00, 0x00, 0x73, 0x65, 0x71, 0x75,
  0x65, 0x6e, 0x74, 0x69, 0x61, 0x6c, 0x5f, 0x31, 0x2f, 0x63, 0x6f, 0x6e,
  0x76, 0x32, 0x64, 0x5f, 0x36, 0x2f, 0x52, 0x65, 0x6c, 0x75, 0x3b, 0x73,
  0x65, 0x71, 0x75, 0x65, 0x6e, 0x74, 0x69, 0x61, 0x6c, 0x5f, 0x31, 0x2f,
  0x63, 0x6f, 0x6e, 0x76, 0x32, 0x64, 0x5f, 0x36, 0x2f, 0x42, 0x69, 0x61,
  0x73, 0x41, 0x64, 0x64, 0x3b, 0x73, 0x65, 0x71, 0x75, 0x65, 0x6e, 0x74,
  0x69, 0x61, 0x6c, 0x5f, 0x31, 0x2f, 0x63, 0x6f, 0x6e, 0x76, 0x32, 0x64,
  0x5f, 0x37, 0x2f, 0x43, 0x6f, 0x6e, 0x76, 0x32, 0x44, 0x3b, 0x73, 0x65,
  0x71, 0x75, 0x65, 0x6e, 0x74, 0x69, 0x61, 0x6c, 0x5f, 0x31, 0x2f, 0x63,
  0x6f, 0x6e, 0x76, 0x32, 0x64, 0x5f, 0x36, 0x2f, 0x43, 0x6f, 0x6e, 0x76,
  0x32, 0x44, 0x3b, 0x62, 0x69, 0x61, 0x73, 0x00, 0x04, 0x00, 0x00, 0x00,
  0xff, 0xff, 0xff, 0xff, 0x2e, 0x00, 0x00, 0x00, 0x2e, 0x00, 0x00, 0x00,
  0x10, 0x00, 0x00, 0x00, 0xd4, 0xb9, 0xfe, 0xff, 0x08, 0x00, 0x00, 0x00,
  0x0c, 0x00, 0x00, 0x00, 0x01, 0x00, 0x00, 0x00, 0x77, 0x40, 0xa8, 0x3b,
  0x01, 0x00, 0x00, 0x00, 0x80, 0xff, 0xff, 0xff, 0xff, 0xff, 0xff, 0xff,
  0x06, 0xbb, 0xfe, 0xff, 0x04, 0x00, 0x00, 0x00, 0x60, 0x00, 0x00, 0x00,
  0x82, 0x01, 0x00, 0x00, 0x8e, 0x02, 0x00, 0x00, 0x47, 0x00, 0x00, 0x00,
  0x87, 0xff, 0xff, 0xff, 0x50, 0x00, 0x00, 0x00, 0xbf, 0x01, 0x00, 0x00,
  0x24, 0x00, 0x00, 0x00, 0x36, 0x00, 0x00, 0x00, 0xaa, 0x00, 0x00, 0x00,
  0x5f, 0x01, 0x00, 0x00, 0xda, 0x01, 0x00, 0x00, 0xf6, 0xff, 0xff, 0xff,
  0x39, 0xfd, 0xff, 0xff, 0x76, 0x01, 0x00, 0x00, 0x5e, 0xff, 0xff, 0xff,
  0x55, 0xfd, 0xff, 0xff, 0xe3, 0xfe, 0xff, 0xff, 0x97, 0xfd, 0xff, 0xff,
  0x57, 0xfe, 0xff, 0xff, 0xc0, 0xfd, 0xff, 0xff, 0x3e, 0x01, 0x00, 0x00,
  0x3d, 0xfe, 0xff, 0xff, 0x8b, 0xfd, 0xff, 0xff, 0xa2, 0xfd, 0xff, 0xff,
  0x56, 0xbb, 0xfe, 0xff, 0x00, 0x00, 0x00, 0x02, 0x10, 0x00, 0x00, 0x00,
  0x1c, 0x00, 0x00, 0x00, 0x10, 0x00, 0x00, 0x00, 0x18, 0x00, 0x00, 0x00,
  0x01, 0x00, 0x00, 0x00, 0x18, 0x00, 0x00, 0x00, 0x06, 0x00, 0x00, 0x00,
  0x62, 0x69, 0x61, 0x73, 0x5f, 0x36, 0x00, 0x00, 0x8c, 0xba, 0xfe, 0xff,
  0x08, 0x00, 0x00, 0x00, 0x0c, 0x00, 0x00, 0x00, 0x01, 0x00, 0x00, 0x00,
  0x03, 0x72, 0x05, 0x39, 0x01, 0x00, 0x00, 0x00, 0x00, 0x00, 0x00, 0x00,
  0x00, 0x00, 0x00, 0x00, 0xbe, 0xbb, 0xfe, 0xff, 0x04, 0x00, 0x00, 0x00,
  0x00, 0x06, 0x00, 0x00, 0x21, 0xce, 0x42, 0x18, 0xe0, 0x18, 0x08, 0x18,
  0xe0, 0xf0, 0x2a, 0x2a, 0xa5, 0xce, 0xd3, 0xb6, 0xce, 0xc1, 0x42, 0xe0,
  0x08, 0xb6, 0xb6, 0x18, 0x57, 0x18, 0x21, 0x21, 0x42, 0x08, 0xf0, 0x7f,
  0xc1, 0x42, 0x42, 0xd3, 0xce, 0x9e, 0x33, 0x42, 0x4b, 0xac, 0x01, 0xb6,
  0xd3, 0xfa, 0x33, 0xb6, 0x18, 0x9e, 0xac, 0x08, 0x18, 0xd3, 0xc1, 0x33,
  0x08, 0xce, 0xe0, 0x18, 0xce, 0xe0, 0xac, 0xa5, 0xf0, 0x08, 0xe0, 0x2a,
  0x18, 0x18, 0x2a, 0xa5, 0x01, 0x33, 0xc1, 0x2a, 0xe0, 0xe0, 0x01, 0x18,
  0x21, 0xac, 0x33, 0xd3, 0xc1, 0xac, 0x21, 0xd3, 0xce, 0xc1, 0x18, 0x08,
  0x9e, 0x18, 0xe0, 0x2a, 0xce, 0xce, 0x42, 0x01, 0xac, 0x4b, 0x42, 0x01,
  0x9e, 0x08, 0x42, 0xfa, 0x33, 0xe0, 0xfa, 0x2a, 0x18, 0x33, 0xf0, 0x08,
  0x42, 0xe0, 0x4b, 0xce, 0x18, 0x2a, 0x18, 0x08, 0xac, 0x33, 0x21, 0x33,
  0x33, 0xe0, 0xd3, 0x33, 0x18, 0xa5, 0x42, 0xac, 0xce, 0x4b, 0xfa, 0x33,
  0xd3, 0x2a, 0x01, 0x08, 0xe0, 0xac, 0xe0, 0x08, 0xac, 0xd3, 0xe0, 0x18,
  0xd3, 0xfa, 0xac, 0xce, 0xce, 0xe0, 0x57, 0x4b, 0x18, 0x08, 0xb6, 0x2a,
  0xac, 0xfa, 0xfa, 0x42, 0xce, 0xc1, 0xce, 0x01, 0xfa, 0x21, 0x21, 0xe0,
  0x33, 0x21, 0x18, 0xac, 0x33, 0x18, 0xce, 0xb6, 0x33, 0x2a, 0x42, 0x08,
  0x2a, 0xb6, 0x18, 0x33, 0x18, 0x08, 0x2a, 0xfa, 0x2a, 0x18, 0x57, 0xf0,
  0xc1, 0xa5, 0xa5, 0xb6, 0xfa, 0xe0, 0x21, 0xe0, 0x9e, 0x57, 0xf0, 0x2a,
  0x01, 0xa5, 0x42, 0x4b, 0x42, 0x2a, 0x18, 0x18, 0xf0, 0xf0, 0xb6, 0xc1,
  0x57, 0xce, 0x42, 0x42, 0x01, 0xe0, 0x9e, 0xb6, 0xd3, 0x33, 0xd3, 0x18,
  0xe0, 0xac, 0x33, 0x9e, 0xce, 0xf0, 0xa5, 0xfa, 0x2a, 0xc1, 0xc1, 0xce,
  0x18, 0xe0, 0x01, 0xc1, 0x33, 0x9e, 0xc1, 0x42, 0xc1, 0xc1, 0xce, 0x18,
  0xce, 0xce, 0xf0, 0xf0, 0x42, 0xf0, 0x2a, 0xe0, 0xd3, 0x2a, 0xd3, 0xc1,
  0xb6, 0x33, 0x18, 0xc1, 0xe0, 0x91, 0x42, 0xce, 0x2a, 0x18, 0x08, 0xc1,
  0x33, 0x08, 0x18, 0xb6, 0x2a, 0x08, 0xc1, 0x08, 0x42, 0x18, 0x2a, 0x21,
  0x33, 0x01, 0x91, 0xc1, 0xfa, 0x2a, 0x18, 0xd3, 0xac, 0x01, 0xac, 0xce,
  0x2a, 0xf0, 0x18, 0x33, 0xb6, 0x2a, 0xe0, 0xce, 0xf0, 0x01, 0x18, 0x21,
  0xc1, 0xce, 0xf0, 0x18, 0xce, 0xd3, 0xe0, 0xf0, 0xf0, 0xe0, 0xf0, 0x18,
  0xf0, 0xf0, 0x42, 0xc1, 0x21, 0xf0, 0x21, 0xb6, 0x08, 0xe0, 0x57, 0x4b,
  0x4b, 0x08, 0x08, 0xd3, 0x2a, 0x42, 0x08, 0xa5, 0xf0, 0xf0, 0x01, 0x4b,
  0x33, 0xe0, 0x21, 0xfa, 0xe0, 0xe0, 0xc1, 0xb6, 0xb6, 0xfa, 0xb6, 0xac,
  0xce, 0xe0, 0xf0, 0xb6, 0x18, 0x21, 0xf0, 0x42, 0xac, 0x4b, 0xac, 0xe0,
  0xf0, 0xc1, 0x21, 0xf0, 0x21, 0x01, 0xf0, 0x18, 0x2a, 0xfa, 0xfa, 0x33,
  0x57, 0xac, 0x42, 0x57, 0x01, 0xb6, 0x2a, 0xb6, 0x01, 0x2a, 0xce, 0x08,
  0xd3, 0xce, 0x33, 0xe0, 0xf0, 0x9e, 0xe0, 0x33, 0x18, 0x4b, 0xb6, 0xfa,
  0xc1, 0x42, 0xa5, 0x18, 0x42, 0xe0, 0xf0, 0x33, 0xd3, 0x2a, 0x01, 0xe0,
  0x08, 0xce, 0xd3, 0xf0, 0xac, 0xfa, 0x33, 0xa5, 0xe0, 0xb6, 0xf0, 0x08,
  0xb6, 0xe0, 0xac, 0xe0, 0x4b, 0xf0, 0xe0, 0xa5, 0xe0, 0xf0, 0xc1, 0xfa,
  0xac, 0xd3, 0x57, 0xac, 0x33, 0xfa, 0x4b, 0xf0, 0x18, 0x33, 0x2a, 0xc1,
  0x9e, 0xce, 0xac, 0x33, 0x33, 0xc1, 0xce, 0x4b, 0xce, 0x33, 0x21, 0x21,
  0x42, 0xb6, 0xe0, 0xe0, 0xb6, 0x33, 0x4b, 0xe0, 0xf0, 0xb6, 0xac, 0x33,
  0x4b, 0xc1, 0xc1, 0xc1, 0xf0, 0x42, 0x18, 0x08, 0x42, 0xfa, 0xb6, 0x42,
  0x2a, 0xa5, 0xb6, 0xce, 0x4b, 0xce, 0xc1, 0x18, 0x18, 0xe0, 0xce, 0xf0,
  0xfa, 0xfa, 0x2a, 0x18, 0xf0, 0x18, 0x21, 0x21, 0xb6, 0xac, 0x08, 0xce,
  0xa5, 0xfa, 0xce, 0xc1, 0x42, 0xd3, 0x08, 0x2a, 0x9e, 0xf0, 0xe0, 0x08,
  0xf0, 0xe0, 0xac, 0x18, 0xf0, 0xa5, 0x18, 0x42, 0xc1, 0x2a, 0xfa, 0xc1,
  0x21, 0x2a, 0xfa, 0xe0, 0xc1, 0xce, 0xa5, 0x33, 0x18, 0x01, 0x33, 0x21,
  0x33, 0x42, 0xe0, 0x21, 0x42, 0x33, 0x91, 0xc1, 0xd3, 0xe0, 0x57, 0x4b,
  0x2a, 0x2a, 0xfa, 0x57, 0xe0, 0x42, 0xd3, 0xce, 0x4b, 0xb6, 0x08, 0x18,
  0xe0, 0x21, 0xb6, 0xf0, 0xe0, 0x42, 0xf0, 0x42, 0x08, 0xb6, 0x33, 0xfa,
  0x33, 0xac, 0x01, 0xd3, 0x08, 0xce, 0xa5, 0x33, 0xac, 0x42, 0xe0, 0x33,
  0xd3, 0x18, 0x18, 0x01, 0xce, 0x57, 0x08, 0xf0, 0x18, 0x18, 0xce, 0x33,
  0x18, 0xfa, 0x9e, 0x08, 0x18, 0x08, 0x4b, 0xb6, 0xc1, 0x18, 0x21, 0xf0,
  0x2a, 0xfa, 0x33, 0xe0, 0x33, 0x01, 0xf0, 0xe0, 0x33, 0xe0, 0x42, 0xc1,
  0x21, 0x42, 0xfa, 0xf0, 0x21, 0xe0, 0x42, 0x18, 0xce, 0x33, 0x2a, 0x18,
  0x21, 0xb6, 0x33, 0xb6, 0xc1, 0xc1, 0x18, 0xfa, 0x01, 0xfa, 0xce, 0x21,
  0x01, 0x42, 0x08, 0xe0, 0xc1, 0x21, 0x42, 0x33, 0xd3, 0x2a, 0x08, 0xb6,
  0xb6, 0x18, 0xc1, 0x2a, 0x2a, 0xf0, 0xd3, 0x2a, 0x18, 0xc1, 0xf0, 0x21,
  0x21, 0x08, 0xe0, 0xd3, 0x18, 0xe0, 0x21, 0xfa, 0xd3, 0x4b, 0xc1, 0xf0,
  0x33, 0x01, 0xce, 0xd3, 0x33, 0x33, 0x08, 0xce, 0xfa, 0x18, 0x33, 0xe0,
  0xc1, 0xc1, 0xe0, 0x42, 0xd3, 0xc1, 0xce, 0x4b, 0x18, 0x33, 0x4b, 0xf0,
  0x33, 0xfa, 0x01, 0xce, 0xac, 0x18, 0x01, 0x57, 0x33, 0x42, 0x42, 0xc1,
  0xf0, 0xd3, 0x33, 0xce, 0x33, 0xfa, 0xf0, 0xc1, 0x18, 0x2a, 0xe0, 0xb6,
  0x4b, 0x18, 0x33, 0xe0, 0xb6, 0x33, 0x08, 0xd3, 0xfa, 0xac, 0x33, 0xac,
  0xb6, 0x08, 0x42, 0xfa, 0x9e, 0x08, 0xb6, 0x42, 0x33, 0xf0, 0xfa, 0xc1,
  0x33, 0xe0, 0xfa, 0x57, 0xac, 0xb6, 0x18, 0xf0, 0xac, 0x42, 0xd3, 0xf0,
  0x4b, 0x33, 0x9e, 0xe0, 0x18, 0x08, 0xac, 0x21, 0xb6, 0x21, 0x42, 0x2a,
  0x33, 0x9e, 0xce, 0xe0, 0xe0, 0xd3, 0xfa, 0x21, 0xac, 0xc1, 0x21, 0x4b,
  0xce, 0x01, 0x33, 0x18, 0x21, 0xb6, 0xf0, 0x33, 0x21, 0x42, 0x42, 0x01,
  0xac, 0x4b, 0x18, 0x9e, 0x57, 0xfa, 0x18, 0xc1, 0x2a, 0x57, 0xc1, 0x42,
  0x08, 0xd3, 0x57, 0xb6, 0x21, 0xf0, 0x9e, 0xe0, 0xf0, 0xf0, 0xe0, 0xac,
  0xe0, 0x42, 0x33, 0xc1, 0x08, 0x9e, 0x18, 0x21, 0x42, 0xe0, 0xb6, 0xce,
  0x42, 0xf0, 0xe0, 0x2a, 0xe0, 0xac, 0x4b, 0x42, 0xd3, 0xf0, 0xb6, 0xf0,
  0x08, 0x42, 0xc1, 0xf0, 0x18, 0xc1, 0x4b, 0xd3, 0xb6, 0x21, 0xfa, 0x42,
  0x21, 0xf0, 0xe0, 0x18, 0x42, 0x18, 0x57, 0x33, 0xd3, 0x33, 0xe0, 0x42,
  0x08, 0x4b, 0xb6, 0xc1, 0x33, 0xce, 0x18, 0xc1, 0x91, 0xb6, 0xfa, 0x01,
  0x4b, 0xfa, 0xd3, 0x4b, 0x21, 0xfa, 0xa5, 0x01, 0x33, 0xb6, 0x08, 0x08,
  0x42, 0xf0, 0xb6, 0xfa, 0xb6, 0xd3, 0x4b, 0xd3, 0x57, 0x9e, 0x9e, 0x2a,
  0xb6, 0x33, 0x01, 0xce, 0x21, 0x01, 0x18, 0x4b, 0x21, 0x42, 0xfa, 0xe0,
  0xc1, 0x42, 0x21, 0xfa, 0xa5, 0x08, 0x42, 0xac, 0xb6, 0xf0, 0x08, 0xb6,
  0xfa, 0x21, 0x4b, 0xb6, 0xc1, 0xe0, 0xe0, 0xac, 0xb6, 0x33, 0xce, 0xf0,
  0x21, 0x33, 0xb6, 0x42, 0x42, 0xac, 0xb6, 0x01, 0xc1, 0xb6, 0x42, 0xac,
  0x18, 0x08, 0xd3, 0xd3, 0xac, 0xc1, 0x33, 0xe0, 0x18, 0x91, 0xf0, 0x33,
  0x4b, 0x08, 0xc1, 0xce, 0x18, 0xfa, 0x01, 0xc1, 0x08, 0xf0, 0x33, 0x18,
  0xb6, 0xc1, 0xac, 0x08, 0xc1, 0x42, 0x2a, 0x21, 0xce, 0xce, 0xac, 0x42,
  0x21, 0xb6, 0x21, 0xd3, 0x4b, 0x08, 0xfa, 0xd3, 0xd3, 0x4b, 0x42, 0xf0,
  0x91, 0xa5, 0xd3, 0xf0, 0x08, 0xd3, 0xce, 0x91, 0xfa, 0xa5, 0x08, 0xf0,
  0x18, 0xf0, 0x91, 0x42, 0x18, 0xce, 0xac, 0xc1, 0xf0, 0xe0, 0xe0, 0x42,
  0xac, 0x18, 0xe0, 0x01, 0x08, 0xb6, 0xc1, 0xc1, 0xb6, 0x42, 0xc1, 0xac,
  0xf0, 0x57, 0xf0, 0x2a, 0xf0, 0xf0, 0x91, 0x18, 0xf0, 0xc1, 0xd3, 0x18,
  0xf0, 0xce, 0x91, 0x01, 0x2a, 0x21, 0x21, 0xd3, 0xce, 0x18, 0x2a, 0x21,
  0xce, 0x2a, 0x18, 0x18, 0xd3, 0x18, 0xfa, 0xfa, 0xf0, 0x01, 0x08, 0xe0,
  0xfa, 0xa5, 0x9e, 0x01, 0x01, 0x21, 0x33, 0xf0, 0x01, 0x21, 0x18, 0xf0,
  0x57, 0x2a, 0xac, 0xd3, 0xac, 0x9e, 0xb6, 0xf0, 0x2a, 0xce, 0xd3, 0x21,
  0x18, 0xa5, 0xe0, 0xe0, 0xb6, 0x2a, 0xf0, 0x18, 0xac, 0xb6, 0x4b, 0xf0,
  0x21, 0xfa, 0xc1, 0xac, 0x33, 0x9e, 0x33, 0x33, 0x33, 0xac, 0x01, 0xe0,
  0x2a, 0x42, 0x08, 0x18, 0xe0, 0x18, 0xe0, 0x42, 0xd3, 0xf0, 0xb6, 0xe0,
  0xce, 0x42, 0xd3, 0x08, 0xfa, 0xd3, 0xc1, 0x4b, 0x21, 0x2a, 0x42, 0x08,
  0xce, 0x01, 0xf0, 0x18, 0x4b, 0xa5, 0x33, 0xa5, 0xf0, 0xc1, 0xb6, 0x42,
  0x57, 0xf0, 0xf0, 0x33, 0x2a, 0x08, 0x91, 0xb6, 0xd3, 0x08, 0x08, 0x08,
  0xd3, 0x18, 0x42, 0x08, 0x18, 0xb6, 0xb6, 0xd3, 0xb6, 0xc1, 0xf0, 0x18,
  0x42, 0xc1, 0xf0, 0x08, 0xf0, 0x33, 0xfa, 0x18, 0xa5, 0x08, 0x21, 0xce,
  0x18, 0xe0, 0xf0, 0x42, 0xf0, 0x21, 0xf0, 0x18, 0x18, 0xce, 0xc1, 0x42,
  0x9e, 0x33, 0xd3, 0x42, 0x42, 0xe0, 0x01, 0xb6, 0xd3, 0x08, 0x33, 0xe0,
  0xc1, 0x2a, 0x01, 0x21, 0x08, 0xe0, 0x01, 0xfa, 0x9e, 0x08, 0xa5, 0xce,
  0x4b, 0x33, 0xf0, 0x42, 0x42, 0xce, 0x42, 0xfa, 0xc1, 0xf0, 0xa5, 0x21,
  0xfa, 0x18, 0x33, 0xd3, 0x9e, 0xf0, 0xb6, 0xa5, 0x21, 0x9e, 0xc1, 0xc1,
  0x18, 0xb6, 0xe0, 0xce, 0xc1, 0x33, 0x57, 0x4b, 0x18, 0x01, 0xf0, 0xce,
  0xd3, 0xfa, 0x42, 0xe0, 0xc1, 0x57, 0x18, 0x18, 0xe0, 0xfa, 0xe0, 0x42,
  0x33, 0x18, 0x4b, 0xfa, 0xfa, 0xce, 0xce, 0x2a, 0x42, 0xac, 0x42, 0x42,
  0x42, 0x2a, 0x18, 0xc1, 0x42, 0xc1, 0x18, 0xfa, 0xe0, 0x21, 0xce, 0xe0,
  0xe0, 0xa5, 0x2a, 0xb6, 0xe0, 0x08, 0xc1, 0xf0, 0xb6, 0x42, 0xf0, 0xac,
  0xf0, 0xc1, 0xce, 0xce, 0xc1, 0xf0, 0xce, 0xc1, 0x01, 0x42, 0xb6, 0x2a,
  0xc1, 0xd3, 0x33, 0xc1, 0x2a, 0xce, 0x42, 0x08, 0x18, 0xe0, 0xa5, 0x18,
  0xfa, 0x42, 0x08, 0x2a, 0x42, 0xd3, 0xa5, 0x2a, 0xe0, 0xc1, 0x57, 0xd3,
  0xc1, 0x21, 0x42, 0xc1, 0xf0, 0xe0, 0x91, 0xe0, 0x4b, 0xc1, 0xd3, 0x01,
  0xfa, 0x42, 0xac, 0xac, 0xb6, 0xd3, 0xf0, 0x33, 0x42, 0xa5, 0x42, 0x01,
  0x18, 0xd3, 0x33, 0xac, 0x2a, 0x4b, 0x08, 0x18, 0xfa, 0xe0, 0xf0, 0x21,
  0x33, 0xce, 0xc1, 0xf0, 0x18, 0x42, 0xce, 0x4b, 0x42, 0xa5, 0x18, 0x9e,
  0x2a, 0x33, 0xc1, 0xac, 0x2a, 0x33, 0xd3, 0x08, 0xa5, 0xac, 0x18, 0x21,
  0xac, 0xc1, 0x01, 0xfa, 0x33, 0x18, 0xe0, 0xe0, 0xf0, 0xce, 0xfa, 0xfa,
  0x33, 0xf0, 0x21, 0xe0, 0xac, 0xe0, 0xc1, 0xa5, 0xfa, 0x2a, 0x33, 0xfa,
  0xc1, 0x2a, 0xc1, 0x42, 0xac, 0x91, 0xc1, 0x42, 0xc1, 0xc1, 0xfa, 0x08,
  0xb6, 0x9e, 0x33, 0x18, 0x01, 0x91, 0xa5, 0x42, 0xe0, 0x08, 0x08, 0xf0,
  0x33, 0xc1, 0x9e, 0x21, 0x33, 0x42, 0xce, 0xce, 0x33, 0xe0, 0x9e, 0x08,
  0x42, 0xac, 0xd3, 0x9e, 0xfa, 0xc1, 0x91, 0x21, 0xce, 0xce, 0x08, 0xe0,
  0x21, 0xfa, 0xd3, 0x4b, 0xd3, 0x2a, 0xb6, 0xc1, 0x33, 0x18, 0x01, 0x21,
  0xac, 0xce, 0xc1, 0x18, 0x42, 0x33, 0x33, 0xb6, 0xf0, 0xd3, 0xfa, 0xb6,
  0x2a, 0x42, 0xce, 0x01, 0xae, 0xc1, 0xfe, 0xff, 0x00, 0x00, 0x00, 0x09,
  0x10, 0x00, 0x00, 0x00, 0x1b, 0x00, 0x00, 0x00, 0x14, 0x00, 0x00, 0x00,
  0x30, 0x00, 0x00, 0x00, 0x02, 0x00, 0x00, 0x00, 0x18, 0x00, 0x00, 0x00,
  0x40, 0x00, 0x00, 0x00, 0x1b, 0x00, 0x00, 0x00, 0x73, 0x65, 0x71, 0x75,
  0x65, 0x6e, 0x74, 0x69, 0x61, 0x6c, 0x5f, 0x31, 0x2f, 0x64, 0x65, 0x6e,
  0x73, 0x65, 0x5f, 0x31, 0x2f, 0x4d, 0x61, 0x74, 0x4d, 0x75, 0x6c, 0x00,
  0xfc, 0xc0, 0xfe, 0xff, 0x08, 0x00, 0x00, 0x00, 0x0c, 0x00, 0x00, 0x00,
  0x01, 0x00, 0x00, 0x00, 0xef, 0x9b, 0x57, 0x3b, 0x01, 0x00, 0x00, 0x00,
  0x00, 0x00, 0x00, 0x00, 0x00, 0x00, 0x00, 0x00, 0x2e, 0xc2, 0xfe, 0xff,
  0x04, 0x00, 0x00, 0x00, 0x40, 0x00, 0x00, 0x00, 0xb0, 0xb4, 0xc8, 0xb3,
  0xa5, 0xbb, 0xbb, 0xc2, 0x9c, 0xcc, 0xa1, 0xca, 0x9a, 0x99, 0xaa, 0xa4,
  0xb4, 0x88, 0xcb, 0xd5, 0xb3, 0xb8, 0xb4, 0xc2, 0xab, 0xa6, 0xc0, 0x9b,
  0xad, 0xb9, 0xa4, 0xb7, 0xb1, 0x88, 0xa1, 0x9d, 0xc0, 0xc9, 0xb5, 0xa9,
  0xad, 0xa3, 0xcb, 0xb2, 0xc1, 0xa6, 0xb7, 0xc1, 0x9c, 0xc5, 0xbb, 0x8b,
  0x80, 0xc4, 0xab, 0xb4, 0xa3, 0xa6, 0x95, 0xab, 0xe7, 0x9c, 0xa2, 0xb1,
  0x5e, 0xc2, 0xfe, 0xff, 0x00, 0x00, 0x00, 0x09, 0x10, 0x00, 0x00, 0x00,
  0x1a, 0x00, 0x00, 0x00, 0x10, 0x00, 0x00, 0x00, 0x48, 0x00, 0x00, 0x00,
  0x01, 0x00, 0x00, 0x00, 0x40, 0x00, 0x00, 0x00, 0x35, 0x00, 0x00, 0x00,
  0x73, 0x65, 0x71, 0x75, 0x65, 0x6e, 0x74, 0x69, 0x61, 0x6c, 0x5f, 0x31,
  0x2f, 0x62, 0x61, 0x74, 0x63, 0x68, 0x5f, 0x6e, 0x6f, 0x72, 0x6d, 0x61,
  0x6c, 0x69, 0x7a, 0x61, 0x74, 0x69, 0x6f, 0x6e, 0x5f, 0x31, 0x31, 0x2f,
  0x46, 0x75, 0x73, 0x65, 0x64, 0x42, 0x61, 0x74, 0x63, 0x68, 0x4e, 0x6f,
  0x72, 0x6d, 0x56, 0x33, 0x31, 0x00, 0x00, 0x00, 0xc4, 0xc1, 0xfe, 0xff,
  0x08, 0x00, 0x00, 0x00, 0x0c, 0x00, 0x00, 0x00, 0x01, 0x00, 0x00, 0x00,
  0x66, 0xa7, 0x72, 0x3b, 0x01, 0x00, 0x00, 0x00, 0x7f, 0x00, 0x00, 0x00,
  0x00, 0x00, 0x00, 0x00, 0xf6, 0xc2, 0xfe, 0xff, 0x04, 0x00, 0x00, 0x00,
  0x40, 0x00, 0x00, 0x00, 0x60, 0x16, 0x37, 0x14, 0x48, 0x4a, 0x39, 0x5c,
  0x39, 0x26, 0x34, 0x0c, 0x1c, 0x55, 0x47, 0x40, 0x19, 0x06, 0x59, 0x2e,
  0x18, 0x37, 0x58, 0x17, 0x2f, 0x5e, 0x26, 0x30, 0x7f, 0x61, 0x26, 0x61,
  0x27, 0x51, 0x66, 0x31, 0x34, 0x55, 0x62, 0x38, 0x40, 0x35, 0xf9, 0x1b,
  0x33, 0x31, 0x43, 0x1f, 0x3d, 0x51, 0x3c, 0x1e, 0x4b, 0x5f, 0x0a, 0x52,
  0x53, 0x2d, 0x20, 0x56, 0xf3, 0x0b, 0x24, 0x3b, 0x26, 0xc3, 0xfe, 0xff,
  0x00, 0x00, 0x00, 0x09, 0x10, 0x00, 0x00, 0x00, 0x19, 0x00, 0x00, 0x00,
  0x10, 0x00, 0x00, 0x00, 0x48, 0x00, 0x00, 0x00, 0x01, 0x00, 0x00, 0x00,
  0x40, 0x00, 0x00, 0x00, 0x34, 0x00, 0x00, 0x00, 0x73, 0x65, 0x71, 0x75,
  0x65, 0x6e, 0x74, 0x69, 0x61, 0x6c, 0x5f, 0x31, 0x2f, 0x62, 0x61, 0x74,
  0x63, 0x68, 0x5f, 0x6e, 0x6f, 0x72, 0x6d, 0x61, 0x6c, 0x69, 0x7a, 0x61,
  0x74, 0x69, 0x6f, 0x6e, 0x5f, 0x31, 0x31, 0x2f, 0x46, 0x75, 0x73, 0x65,
  0x64, 0x42, 0x61, 0x74, 0x63, 0x68, 0x4e, 0x6f, 0x72, 0x6d, 0x56, 0x33,
  0x00, 0x00, 0x00, 0x00, 0x8c, 0xc2, 0xfe, 0xff, 0x08, 0x00, 0x00, 0x00,
  0x0c, 0x00, 0x00, 0x00, 0x01, 0x00, 0x00, 0x00, 0x58, 0xe8, 0xc4, 0x3b,
  0x01, 0x00, 0x00, 0x00, 0x80, 0xff, 0xff, 0xff, 0xff, 0xff, 0xff, 0xff,
  0x00, 0x00, 0x00, 0x00, 0xc2, 0xc3, 0xfe, 0xff, 0x04, 0x00, 0x00, 0x00,
  0x00, 0x01, 0x00, 0x00, 0xbc, 0xfe, 0xff, 0xff, 0xe8, 0xf7, 0xff, 0xff,
  0xeb, 0x02, 0x00, 0x00, 0x52, 0xfe, 0xff, 0xff, 0x77, 0xf9, 0xff, 0xff,
  0x43, 0xfa, 0xff, 0xff, 0x61, 0xfd, 0xff, 0xff, 0xa8, 0x00, 0x00, 0x00,
  0x1e, 0x05, 0x00, 0x00, 0x33, 0xfa, 0xff, 0xff, 0xd3, 0x02, 0x00, 0x00,
  0x7e, 0xf6, 0xff, 0xff, 0x5b, 0xff, 0xff, 0xff, 0xb0, 0x09, 0x00, 0x00,
  0x28, 0xfd, 0xff, 0xff, 0xad, 0xf8, 0xff, 0xff, 0x8b, 0x01, 0x00, 0x00,
  0xa8, 0x04, 0x00, 0x00, 0x86, 0xfc, 0xff, 0xff, 0x5e, 0xfa, 0xff, 0xff,
  0x81, 0xfe, 0xff, 0xff, 0x0e, 0xf9, 0xff, 0xff, 0x7d, 0xff, 0xff, 0xff,
  0xfe, 0xfb, 0xff, 0xff, 0xe7, 0xfc, 0xff, 0xff, 0xa7, 0xfd, 0xff, 0xff,
  0x7a, 0xfc, 0xff, 0xff, 0x56, 0xff, 0xff, 0xff, 0x02, 0xf7, 0xff, 0xff,
  0x2b, 0xff, 0xff, 0xff, 0x5d, 0xf8, 0xff, 0xff, 0xd5, 0x02, 0x00, 0x00,
  0x98, 0xfc, 0xff, 0xff, 0x05, 0x02, 0x00, 0x00, 0x1e, 0x00, 0x00, 0x00,
  0xad, 0x05, 0x00, 0x00, 0xc8, 0xf2, 0xff, 0xff, 0x88, 0x00, 0x00, 0x00,
  0xf1, 0xfe, 0xff, 0xff, 0xd5, 0xfc, 0xff, 0xff, 0x42, 0x00, 0x00, 0x00,
  0x8d, 0xfe, 0xff, 0xff, 0xa3, 0xfd, 0xff, 0xff, 0x53, 0xfb, 0xff, 0xff,
  0x08, 0x04, 0x00, 0x00, 0x57, 0x00, 0x00, 0x00, 0xff, 0xfc, 0xff, 0xff,
  0x40, 0x05, 0x00, 0x00, 0xc9, 0x01, 0x00, 0x00, 0xdf, 0xf4, 0xff, 0xff,
  0x31, 0xfa, 0xff, 0xff, 0xcd, 0xff, 0xff, 0xff, 0x3e, 0x09, 0x00, 0x00,
  0x38, 0xff, 0xff, 0xff, 0x79, 0xfd, 0xff, 0xff, 0xa1, 0xfd, 0xff, 0xff,
  0x12, 0x07, 0x00, 0x00, 0x86, 0x00, 0x00, 0x00, 0xd6, 0x00, 0x00, 0x00,
  0x97, 0x00, 0x00, 0x00, 0x11, 0xff, 0xff, 0xff, 0x9d, 0x00, 0x00, 0x00,
  0xd7, 0xfd, 0xff, 0xff, 0x85, 0xf7, 0xff, 0xff, 0xb2, 0xc4, 0xfe, 0xff,
  0x00, 0x00, 0x00, 0x02, 0x10, 0x00, 0x00, 0x00, 0x18, 0x00, 0x00, 0x00,
  0x10, 0x00, 0x00, 0x00, 0x18, 0x00, 0x00, 0x00, 0x01, 0x00, 0x00, 0x00,
  0x40, 0x00, 0x00, 0x00, 0x06, 0x00, 0x00, 0x00, 0x62, 0x69, 0x61, 0x73,
  0x5f, 0x35, 0x00, 0x00, 0xe8, 0xc3, 0xfe, 0xff, 0x08, 0x00, 0x00, 0x00,
  0x08, 0x01, 0x00, 0x00, 0x40, 0x00, 0x00, 0x00, 0x11, 0x35, 0x11, 0x38,
  0x11, 0x35, 0x11, 0x38, 0x87, 0x10, 0x16, 0x38, 0x11, 0x35, 0x11, 0x38,
  0x87, 0x10, 0x16, 0x38, 0x87, 0x10, 0x16, 0x38, 0x11, 0x35, 0x11, 0x38,
  0x87, 0x10, 0x16, 0x38, 0x87, 0x10, 0x16, 0x38, 0x11, 0x35, 0x11, 0x38,
  0x87, 0x10, 0x16, 0x38, 0x11, 0x35, 0x11, 0x38, 0x87, 0x10, 0x16, 0x38,
  0xed, 0xce, 0xf7, 0x37, 0x87, 0x10, 0x16, 0x38, 0x87, 0x10, 0x16, 0x38,
  0x11, 0x35, 0x11, 0x38, 0x87, 0x10, 0x16, 0x38, 0x87, 0x10, 0x16, 0x38,
  0x11, 0x35, 0x11, 0x38, 0xed, 0xce, 0xf7, 0x37, 0x11, 0x35, 0x11, 0x38,
  0x87, 0x10, 0x16, 0x38, 0x11, 0x35, 0x11, 0x38, 0x11, 0x35, 0x11, 0x38,
  0x11, 0x35, 0x11, 0x38, 0x87, 0x10, 0x16, 0x38, 0x87, 0x10, 0x16, 0x38,
  0x87, 0x10, 0x16, 0x38, 0x87, 0x10, 0x16, 0x38, 0x11, 0x35, 0x11, 0x38,
  0x11, 0x35, 0x11, 0x38, 0x11, 0x35, 0x11, 0x38, 0x87, 0x10, 0x16, 0x38,
  0x87, 0x10, 0x16, 0x38, 0x87, 0x10, 0x16, 0x38, 0x11, 0x35, 0x11, 0x38,
  0x87, 0x10, 0x16, 0x38, 0x87, 0x10, 0x16, 0x38, 0x87, 0x10, 0x16, 0x38,
  0x87, 0x10, 0x16, 0x38, 0x87, 0x10, 0x16, 0x38, 0x11, 0x35, 0x11, 0x38,
  0x11, 0x35, 0x11, 0x38, 0xed, 0xce, 0xf7, 0x37, 0x11, 0x35, 0x11, 0x38,
  0x87, 0x10, 0x16, 0x38, 0x87, 0x10, 0x16, 0x38, 0x87, 0x10, 0x16, 0x38,
  0x87, 0x10, 0x16, 0x38, 0xed, 0xce, 0xf7, 0x37, 0x87, 0x10, 0x16, 0x38,
  0x87, 0x10, 0x16, 0x38, 0x11, 0x35, 0x11, 0x38, 0x11, 0x35, 0x11, 0x38,
  0xed, 0xce, 0xf7, 0x37, 0x87, 0x10, 0x16, 0x38, 0x87, 0x10, 0x16, 0x38,
  0x87, 0x10, 0x16, 0x38, 0x87, 0x10, 0x16, 0x38, 0x94, 0x7e, 0xec, 0x37,
  0x11, 0x35, 0x11, 0x38, 0x87, 0x10, 0x16, 0x38, 0x87, 0x10, 0x16, 0x38,
  0x40, 0x00, 0x00, 0x00, 0x00, 0x00, 0x00, 0x00, 0x00, 0x00, 0x00, 0x00,
  0x00, 0x00, 0x00, 0x00, 0x00, 0x00, 0x00, 0x00, 0x00, 0x00, 0x00, 0x00,
  0x00, 0x00, 0x00, 0x00, 0x00, 0x00, 0x00, 0x00, 0x00, 0x00, 0x00, 0x00,
  0x00, 0x00, 0x00, 0x00, 0x00, 0x00, 0x00, 0x00, 0x00, 0x00, 0x00, 0x00,
  0x00, 0x00, 0x00, 0x00, 0x00, 0x00, 0x00, 0x00, 0x00, 0x00, 0x00, 0x00,
  0x00, 0x00, 0x00, 0x00, 0x00, 0x00, 0x00, 0x00, 0x00, 0x00, 0x00, 0x00,
  0x00, 0x00, 0x00, 0x00, 0x00, 0x00, 0x00, 0x00, 0x00, 0x00, 0x00, 0x00,
  0x00, 0x00, 0x00, 0x00, 0x00, 0x00, 0x00, 0x00, 0x00, 0x00, 0x00, 0x00,
  0x00, 0x00, 0x00, 0x00, 0x00, 0x00, 0x00, 0x00, 0x00, 0x00, 0x00, 0x00,
  0x00, 0x00, 0x00, 0x00, 0x00, 0x00, 0x00, 0x00, 0x00, 0x00, 0x00, 0x00,
  0x00, 0x00, 0x00, 0x00, 0x00, 0x00, 0x00, 0x00, 0x00, 0x00, 0x00, 0x00,
  0x00, 0x00, 0x00, 0x00, 0x00, 0x00, 0x00, 0x00, 0x00, 0x00, 0x00, 0x00,
  0x00, 0x00, 0x00, 0x00, 0x00, 0x00, 0x00, 0x00, 0x00, 0x00, 0x00, 0x00,
  0x00, 0x00, 0x00, 0x00, 0x00, 0x00, 0x00, 0x00, 0x00, 0x00, 0x00, 0x00,
  0x00, 0x00, 0x00, 0x00, 0x00, 0x00, 0x00, 0x00, 0x00, 0x00, 0x00, 0x00,
  0x00, 0x00, 0x00, 0x00, 0x00, 0x00, 0x00, 0x00, 0x00, 0x00, 0x00, 0x00,
  0x00, 0x00, 0x00, 0x00, 0x00, 0x00, 0x00, 0x00, 0x00, 0x00, 0x00, 0x00,
  0x00, 0x00, 0x00, 0x00, 0x00, 0x00, 0x00, 0x00, 0x00, 0x00, 0x00, 0x00,
  0x00, 0x00, 0x00, 0x00, 0x00, 0x00, 0x00, 0x00, 0x00, 0x00, 0x00, 0x00,
  0x00, 0x00, 0x00, 0x00, 0x00, 0x00, 0x00, 0x00, 0x00, 0x00, 0x00, 0x00,
  0x00, 0x00, 0x00, 0x00, 0x00, 0x00, 0x00, 0x00, 0x00, 0x00, 0x00, 0x00,
  0x00, 0x00, 0x00, 0x00, 0x00, 0x00, 0x00, 0x00, 0x00, 0x00, 0x00, 0x00,
  0x00, 0x00, 0x00, 0x00, 0x00, 0x00, 0x00, 0x00, 0x00, 0x00, 0x00, 0x00,
  0x00, 0x00, 0x00, 0x00, 0x00, 0x00, 0x00, 0x00, 0x00, 0x00, 0x00, 0x00,
  0x00, 0x00, 0x00, 0x00, 0x00, 0x00, 0x00, 0x00, 0x00, 0x00, 0x00, 0x00,
  0x00, 0x00, 0x00, 0x00, 0x00, 0x00, 0x00, 0x00, 0x00, 0x00, 0x00, 0x00,
  0x00, 0x00, 0x00, 0x00, 0x00, 0x00, 0x00, 0x00, 0x00, 0x00, 0x00, 0x00,
  0x00, 0x00, 0x00, 0x00, 0x00, 0x00, 0x00, 0x00, 0x00, 0x00, 0x00, 0x00,
  0x00, 0x00, 0x00, 0x00, 0x00, 0x00, 0x00, 0x00, 0x00, 0x00, 0x00, 0x00,
  0x00, 0x00, 0x00, 0x00, 0x00, 0x00, 0x00, 0x00, 0x00, 0x00, 0x00, 0x00,
  0x00, 0x00, 0x00, 0x00, 0x00, 0x00, 0x00, 0x00, 0x00, 0x00, 0x00, 0x00,
  0x00, 0x00, 0x00, 0x00, 0x00, 0x00, 0x00, 0x00, 0x00, 0x00, 0x00, 0x00,
  0x00, 0x00, 0x00, 0x00, 0x00, 0x00, 0x00, 0x00, 0x00, 0x00, 0x00, 0x00,
  0x00, 0x00, 0x00, 0x00, 0x00, 0x00, 0x00, 0x00, 0x00, 0x00, 0x00, 0x00,
  0x00, 0x00, 0x00, 0x00, 0x00, 0x00, 0x00, 0x00, 0x00, 0x00, 0x00, 0x00,
  0x00, 0x00, 0x00, 0x00, 0x00, 0x00, 0x00, 0x00, 0x00, 0x00, 0x00, 0x00,
  0x00, 0x00, 0x00, 0x00, 0x00, 0x00, 0x00, 0x00, 0x00, 0x00, 0x00, 0x00,
  0x00, 0x00, 0x00, 0x00, 0x00, 0x00, 0x00, 0x00, 0x00, 0x00, 0x00, 0x00,
  0x00, 0x00, 0x00, 0x00, 0x00, 0x00, 0x00, 0x00, 0x00, 0x00, 0x00, 0x00,
  0x00, 0x00, 0x00, 0x00, 0x00, 0x00, 0x00, 0x00, 0x00, 0x00, 0x00, 0x00,
  0x00, 0x00, 0x00, 0x00, 0x00, 0x00, 0x00, 0x00, 0x00, 0x00, 0x00, 0x00,
  0x00, 0x00, 0x00, 0x00, 0x00, 0x00, 0x00, 0x00, 0x00, 0x00, 0x00, 0x00,
  0x00, 0x00, 0x00, 0x00, 0x00, 0x00, 0x00, 0x00, 0x00, 0x00, 0x00, 0x00,
  0x0e, 0xc8, 0xfe, 0xff, 0x04, 0x00, 0x00, 0x00, 0x00, 0x90, 0x00, 0x00,
  0x1b, 0xe8, 0xc2, 0xc2, 0xd2, 0xfd, 0xe8, 0xe8, 0x1b, 0xf3, 0x36, 0x28,
  0x3f, 0xe8, 0x0b, 0xf3, 0x28, 0x5b, 0xd2, 0x0b, 0xfd, 0xfd, 0x1b, 0x28,
  0xd2, 0xd2, 0x53, 0x3f, 0xc2, 0xfd, 0xf3, 0x28, 0xfd, 0x36, 0x36, 0xb5,
  0xe8, 0xf3, 0xd2, 0xd2, 0xb5, 0xc2, 0x1b, 0x1b, 0xfd, 0x28, 0x1b, 0x0b,
  0x36, 0xfd, 0xe8, 0xfd, 0xc2, 0xe8, 0xc2, 0xf3, 0x1b, 0xfd, 0xd2, 0xfd,
  0xb5, 0xd2, 0xd2, 0xc2, 0xfd, 0x36, 0x0b, 0xe8, 0x0b, 0x1b, 0xe8, 0xc2,
  0x28, 0x1b, 0x1b, 0xc2, 0x3f, 0x36, 0x36, 0xe8, 0xb5, 0x4b, 0xc2, 0x36,
  0x28, 0x4b, 0x0b, 0x0b, 0xb5, 0x94, 0x28, 0x0b, 0x36, 0x4b, 0xb5, 0x28,
  0xc2, 0x36, 0x36, 0xf3, 0xd2, 0x36, 0xfd, 0xfd, 0x1b, 0xfd, 0x3f, 0x28,
  0x36, 0xf3, 0x28, 0xf3, 0x5b, 0xe8, 0x36, 0xb5, 0xd2, 0xe8, 0x28, 0x36,
  0xb5, 0xaf, 0xc2, 0xfd, 0xe8, 0xe8, 0x28, 0x36, 0xc2, 0x1b, 0xe8, 0x0b,
  0x53, 0x1b, 0x3f, 0xd2, 0x3f, 0xfd, 0x0b, 0x4b, 0xfd, 0xe8, 0xb5, 0xe8,
  0xf3, 0x28, 0xfd, 0x0b, 0xf3, 0x3f, 0x1b, 0x28, 0xd2, 0x94, 0xf3, 0xf3,
  0xfd, 0xd2, 0xfd, 0x0b, 0x0b, 0xf3, 0x28, 0xb5, 0xfd, 0x4b, 0x0b, 0xc2,
  0xc2, 0xd2, 0xf3, 0xd2, 0x36, 0x1b, 0x3f, 0xb5, 0x67, 0xc2, 0xe8, 0xa9,
  0xa0, 0x36, 0xe8, 0x28, 0x1b, 0xa9, 0xd2, 0xf3, 0x0b, 0x1b, 0xfd, 0xd2,
  0x0b, 0x28, 0xe8, 0xd2, 0xf3, 0xe8, 0x28, 0xe8, 0x53, 0xb5, 0xf3, 0xe8,
  0x3f, 0x28, 0xe8, 0xfd, 0xe8, 0x4b, 0xe8, 0xf3, 0x36, 0x67, 0x36, 0xfd,
  0xe8, 0x0b, 0xd2, 0x67, 0xc2, 0xd2, 0x1b, 0xd2, 0x36, 0x28, 0xc2, 0xe8,
  0xe8, 0x0b, 0xfd, 0xd2, 0xa9, 0x4b, 0x28, 0x1b, 0x0b, 0x1b, 0x0b, 0xf3,
  0x36, 0x1b, 0x0b, 0x0b, 0xfd, 0xd2, 0xc2, 0x1b, 0x0b, 0x0b, 0xd2, 0x0b,
  0xd2, 0x36, 0x36, 0xd2, 0x1b, 0x28, 0xa0, 0xe8, 0xc2, 0x1b, 0x0b, 0xe8,
  0xe8, 0xd2, 0x4b, 0x1b, 0xc2, 0xd2, 0xf3, 0x0b, 0xd2, 0xfd, 0xe8, 0x28,
  0xe8, 0x28, 0x28, 0xe8, 0xe8, 0x28, 0xe8, 0x5b, 0x36, 0xf3, 0xaf, 0xfd,
  0x0b, 0x3f, 0xf3, 0x0b, 0x28, 0xe8, 0xd2, 0x28, 0x0b, 0xe8, 0xd2, 0x3f,
  0xa9, 0x36, 0xd2, 0x28, 0x28, 0xd2, 0xfd, 0xb5, 0xfd, 0x4b, 0x0b, 0x1b,
  0x3f, 0xe8, 0xd2, 0xfd, 0xaf, 0x28, 0xd2, 0x1b, 0x3f, 0xe8, 0xc2, 0xfd,
  0xd2, 0xc2, 0x4b, 0x36, 0x1b, 0xe8, 0x53, 0xe8, 0x4b, 0xf3, 0x1b, 0x28,
  0xc2, 0x0b, 0x0b, 0x36, 0xc2, 0x28, 0xe8, 0xd2, 0x1b, 0xd2, 0xc2, 0x3f,
  0xe8, 0x4b, 0xe8, 0xfd, 0xfd, 0xd2, 0xf3, 0xd2, 0xd2, 0x1b, 0x1b, 0x3f,
  0xfd, 0xc2, 0x1b, 0xf3, 0x0b, 0x36, 0x28, 0xd2, 0x7f, 0xb5, 0xb5, 0xd2,
  0xc2, 0xc2, 0x0b, 0x1b, 0xe8, 0xaf, 0x28, 0x0b, 0xfd, 0x3f, 0xf3, 0xe8,
  0x0b, 0xd2, 0x36, 0x3f, 0xb5, 0xb5, 0x0b, 0x0b, 0xf3, 0xfd, 0x53, 0x28,
  0xa9, 0xf3, 0x7f, 0x0b, 0x36, 0x4b, 0xc2, 0x36, 0x1b, 0xe8, 0x0b, 0x94,
  0x1b, 0xd2, 0xaf, 0x0b, 0x1b, 0xd2, 0xfd, 0x0b, 0xd2, 0xf3, 0xc2, 0x28,
  0x36, 0xc2, 0xf3, 0xd2, 0xd2, 0xfd, 0x0b, 0xf3, 0x0b, 0x0b, 0x0b, 0xf3,
  0xfd, 0x28, 0x1b, 0xfd, 0xe8, 0xe8, 0xaf, 0x36, 0x1b, 0x1b, 0xd2, 0xc2,
  0xaf, 0xf3, 0xfd, 0xd2, 0xe8, 0x0b, 0xa0, 0x36, 0x36, 0xfd, 0xf3, 0xc2,
  0x4b, 0xc2, 0xf3, 0xd2, 0xfd, 0x3f, 0x36, 0xe8, 0xaf, 0x0b, 0xfd, 0xe8,
  0xe8, 0xe8, 0x1b, 0xf3, 0xd2, 0x28, 0xc2, 0x1b, 0xd2, 0x3f, 0x3f, 0xfd,
  0xb5, 0x1b, 0xaf, 0xe8, 0xfd, 0xb5, 0xd2, 0xfd, 0xe8, 0x1b, 0xb5, 0x1b,
  0xb5, 0xe8, 0x4b, 0x5b, 0xe8, 0xc2, 0xe8, 0xaf, 0xe8, 0x0b, 0x1b, 0x1b,
  0xd2, 0x1b, 0x0b, 0xfd, 0xfd, 0x1b, 0x53, 0x28, 0xe8, 0x36, 0xe8, 0xfd,
  0x3f, 0xe8, 0xe8, 0xe8, 0x67, 0xe8, 0x5b, 0x3f, 0xe8, 0xf3, 0xf3, 0x1b,
  0xb5, 0xe8, 0x1b, 0xaf, 0xe8, 0x1b, 0xd2, 0xe8, 0x28, 0x0b, 0x1b, 0x4b,
  0x1b, 0xfd, 0xe8, 0x0b, 0x3f, 0x36, 0x1b, 0xf3, 0x0b, 0x1b, 0xfd, 0x36,
  0x36, 0xe8, 0xf3, 0x4b, 0xd2, 0xfd, 0x3f, 0xd2, 0x36, 0xc2, 0x0b, 0x0b,
  0xe8, 0xaf, 0xc2, 0xe8, 0x1b, 0xe8, 0xd2, 0xe8, 0xc2, 0xe8, 0x1b, 0xd2,
  0xd2, 0x28, 0x1b, 0xaf, 0x36, 0x0b, 0xd2, 0x3f, 0xe8, 0x28, 0xe8, 0x0b,
  0xf3, 0xd2, 0x28, 0xf3, 0x28, 0xfd, 0x1b, 0xe8, 0x4b, 0xf3, 0x0b, 0xfd,
  0x0b, 0xfd, 0x0b, 0x0b, 0x67, 0xe8, 0xd2, 0xc2, 0xe8, 0xf3, 0x28, 0xb5,
  0xd2, 0x36, 0xfd, 0xf3, 0x1b, 0x5b, 0x3f, 0x1b, 0xd2, 0x5b, 0xd2, 0x1b,
  0x1b, 0xaf, 0x36, 0xe8, 0xfd, 0x3f, 0xd2, 0x0b, 0x36, 0xfd, 0xe8, 0x4b,
  0x67, 0xe8, 0x94, 0x1b, 0xd2, 0x0b, 0xfd, 0x0b, 0x1b, 0x3f, 0xe8, 0x1b,
  0x1b, 0x36, 0xd2, 0xe8, 0xc2, 0x3f, 0xd2, 0x28, 0xd2, 0x1b, 0x28, 0xc2,
  0x1b, 0xf3, 0xe8, 0x36, 0xe8, 0xb5, 0xb5, 0xf3, 0x67, 0x0b, 0xd2, 0xfd,
  0x1b, 0x1b, 0x4b, 0x0b, 0x0b, 0x1b, 0x28, 0xf3, 0x0b, 0x5b, 0xe8, 0xd2,
  0xd2, 0xf3, 0x4b, 0x28, 0x0b, 0xe8, 0x0b, 0xc2, 0xd2, 0xf3, 0xe8, 0xd2,
  0x0b, 0xf3, 0xfd, 0x53, 0xfd, 0xfd, 0xb5, 0x1b, 0xf3, 0x28, 0x4b, 0xd2,
  0xe8, 0xe8, 0xe8, 0x5b, 0x1b, 0x4b, 0xfd, 0xc2, 0xf3, 0xc2, 0x28, 0x53,
  0xb5, 0x5b, 0x36, 0x1b, 0x0b, 0xfd, 0x7f, 0xd2, 0x1b, 0xc2, 0xd2, 0x4b,
  0x1b, 0xc2, 0xf3, 0xe8, 0xfd, 0xe8, 0x67, 0xf3, 0x0b, 0x0b, 0xfd, 0x1b,
  0xfd, 0x28, 0x53, 0x3f, 0xd2, 0xc2, 0x3f, 0xe8, 0xd2, 0xe8, 0x28, 0xd2,
  0xe8, 0x28, 0x28, 0x0b, 0x5b, 0xf3, 0xfd, 0xfd, 0x4b, 0xf3, 0xfd, 0xd2,
  0x0b, 0xe8, 0xe8, 0xf3, 0xfd, 0xd2, 0x1b, 0xf3, 0xf3, 0x3f, 0x1b, 0xa0,
  0xfd, 0x4b, 0x0b, 0xe8, 0xc2, 0xfd, 0x1b, 0xf3, 0xf3, 0xd2, 0xe8, 0x0b,
  0x0b, 0xe8, 0xfd, 0xe8, 0x1b, 0xe8, 0x36, 0x0b, 0x0b, 0x4b, 0xf3, 0xc2,
  0x28, 0xc2, 0xe8, 0xe8, 0xf3, 0x53, 0x36, 0x1b, 0x1b, 0xd2, 0xfd, 0xfd,
  0xc2, 0x0b, 0x0b, 0xd2, 0x28, 0xe8, 0xfd, 0x1b, 0xe8, 0x3f, 0x1b, 0x36,
  0x28, 0x36, 0x3f, 0x28, 0x1b, 0xe8, 0x28, 0x0b, 0x0b, 0x1b, 0xfd, 0xd2,
  0xd2, 0x0b, 0x28, 0x1b, 0xb5, 0x3f, 0x28, 0x1b, 0x4b, 0x1b, 0x0b, 0xd2,
  0xd2, 0xe8, 0x1b, 0x36, 0x0b, 0xfd, 0xb5, 0x0b, 0xd2, 0x0b, 0x1b, 0xe8,
  0xf3, 0xe8, 0xe8, 0xd2, 0x0b, 0xd2, 0xf3, 0x0b, 0x36, 0xe8, 0xc2, 0xe8,
  0xe8, 0xb5, 0x0b, 0x1b, 0xb5, 0x0b, 0x1b, 0xfd, 0x28, 0x4b, 0x28, 0x4b,
  0xfd, 0xd2, 0x36, 0x4b, 0x4b, 0xfd, 0xa9, 0xf3, 0x0b, 0x28, 0x0b, 0xd2,
  0xe8, 0xf3, 0x28, 0x1b, 0x0b, 0x36, 0x1b, 0xa0, 0x1b, 0xfd, 0x1b, 0x0b,
  0xb5, 0x0b, 0x1b, 0xe8, 0xe8, 0xc2, 0xf3, 0x5b, 0xc2, 0x1b, 0xd2, 0x36,
  0x36, 0x36, 0xc2, 0x28, 0xb5, 0xe8, 0xfd, 0xe8, 0x28, 0xd2, 0xe8, 0xf3,
  0x28, 0x1b, 0x3f, 0xd2, 0x0b, 0x0b, 0x0b, 0x28, 0xaf, 0x1b, 0x0b, 0xfd,
  0xfd, 0x1b, 0x0b, 0x36, 0x1b, 0x1b, 0x0b, 0x0b, 0x5b, 0x0b, 0xfd, 0xe8,
  0xf3, 0xf3, 0x53, 0x28, 0x1b, 0x36, 0xe8, 0x1b, 0xe8, 0x53, 0xe8, 0xc2,
  0xaf, 0x4b, 0x0b, 0x0b, 0xfd, 0x1b, 0xfd, 0x0b, 0x28, 0xfd, 0xd2, 0x36,
  0xd2, 0x3f, 0xb5, 0x0b, 0x28, 0x28, 0x0b, 0xd2, 0xd2, 0x36, 0x0b, 0xf3,
  0xd2, 0x36, 0xd2, 0xb5, 0x0b, 0x28, 0x3f, 0xe8, 0xd2, 0xc2, 0x28, 0x36,
  0xb5, 0xe8, 0x0b, 0xfd, 0x0b, 0xc2, 0xfd, 0x1b, 0x0b, 0x28, 0x5b, 0x53,
  0x5b, 0xc2, 0xd2, 0xe8, 0x1b, 0x28, 0x3f, 0xd2, 0x36, 0x3f, 0x1b, 0xf3,
  0xd2, 0xfd, 0xf3, 0x1b, 0xaf, 0x4b, 0xfd, 0x5b, 0xe8, 0xb5, 0x1b, 0x1b,
  0x1b, 0x0b, 0xc2, 0x67, 0x0b, 0x1b, 0x3f, 0xf3, 0x0b, 0xf3, 0x36, 0xfd,
  0xd2, 0xd2, 0x28, 0xd2, 0x28, 0xe8, 0xf3, 0xfd, 0x28, 0x4b, 0x1b, 0xe8,
  0x1b, 0x28, 0x28, 0xe8, 0xd2, 0x1b, 0x36, 0xd2, 0x3f, 0x0b, 0x0b, 0x1b,
  0xd2, 0xf3, 0x36, 0x36, 0xe8, 0xd2, 0x0b, 0xf3, 0xe8, 0x4b, 0x1b, 0xe8,
  0x36, 0x36, 0xd2, 0x36, 0x5b, 0xd2, 0x36, 0xc2, 0xa0, 0x1b, 0x36, 0x36,
  0x28, 0x0b, 0x36, 0x1b, 0xfd, 0xf3, 0xf3, 0x67, 0xd2, 0xf3, 0xaf, 0x4b,
  0xd2, 0x4b, 0xf3, 0x0b, 0x94, 0x1b, 0x1b, 0x1b, 0x3f, 0x0b, 0xd2, 0xd2,
  0x36, 0x53, 0xd2, 0xd2, 0x28, 0xd2, 0xf3, 0xf3, 0x0b, 0x1b, 0x5b, 0x28,
  0xd2, 0x3f, 0xc2, 0xfd, 0xe8, 0xc2, 0x3f, 0x1b, 0x5b, 0xfd, 0xe8, 0x4b,
  0xfd, 0x34, 0x81, 0x58, 0xe9, 0x26, 0xc4, 0x1a, 0xd4, 0xfd, 0xe9, 0xf4,
  0x51, 0x0a, 0x26, 0x1a, 0x0a, 0xd4, 0x97, 0xb8, 0xf4, 0xfd, 0x97, 0x0a,
  0xd4, 0xf4, 0x1a, 0x0a, 0xe9, 0x1a, 0x0a, 0x34, 0x51, 0xd4, 0xc4, 0x34,
  0x26, 0x3d, 0xe9, 0xf4, 0xe9, 0xc4, 0xa4, 0xe9, 0x1a, 0x81, 0x0a, 0x34,
  0x34, 0xe9, 0xf4, 0x97, 0x34, 0xf4, 0xfd, 0x34, 0xc4, 0xc4, 0x97, 0x1a,
  0x1a, 0xd4, 0x49, 0xd4, 0xfd, 0x3d, 0xe9, 0x34, 0xd4, 0x0a, 0xe9, 0x34,
  0x49, 0x0a, 0xe9, 0xd4, 0x49, 0xd4, 0x26, 0x0a, 0x34, 0xc4, 0xd4, 0xfd,
  0x34, 0x64, 0xb8, 0x49, 0xe9, 0x0a, 0x0a, 0xd4, 0xd4, 0x49, 0xfd, 0x49,
  0xc4, 0x26, 0xe9, 0xf4, 0xd4, 0x0a, 0x0a, 0x26, 0xd4, 0xe9, 0xd4, 0xd4,
  0xe9, 0x0a, 0xc4, 0xe9, 0x49, 0xf4, 0xf4, 0x34, 0xe9, 0x0a, 0xb8, 0xc4,
  0x0a, 0x0a, 0xd4, 0xfd, 0xfd, 0x0a, 0x34, 0xfd, 0xf4, 0xc4, 0x97, 0x58,
  0xb8, 0x0a, 0x1a, 0x1a, 0xfd, 0xf4, 0xfd, 0xac, 0x51, 0xe9, 0xfd, 0xfd,
  0x3d, 0xb8, 0xd4, 0xe9, 0x49, 0x1a, 0xac, 0x0a, 0xd4, 0xd4, 0xe9, 0xe9,
  0x34, 0x26, 0x34, 0x51, 0x34, 0x0a, 0xd4, 0x26, 0x1a, 0x0a, 0x51, 0x0a,
  0x1a, 0x3d, 0x26, 0x97, 0x0a, 0x26, 0x1a, 0xe9, 0x3d, 0xc4, 0xf4, 0x26,
  0x0a, 0xb8, 0xf4, 0x49, 0xb8, 0x26, 0xa4, 0x3d, 0xe9, 0xc4, 0x0a, 0x3d,
  0xfd, 0x26, 0xb8, 0xfd, 0xd4, 0xd4, 0xc4, 0xe9, 0x0a, 0xc4, 0xc4, 0xb8,
  0x26, 0xac, 0x3d, 0x26, 0xfd, 0x26, 0x0a, 0xf4, 0xfd, 0xd4, 0xd4, 0xc4,
  0xd4, 0xd4, 0xa4, 0xd4, 0x1a, 0x26, 0x49, 0x0a, 0x58, 0x0a, 0x34, 0x1a,
  0x26, 0x0a, 0x58, 0xe9, 0x1a, 0x34, 0xf4, 0xc4, 0xfd, 0x34, 0xf4, 0x0a,
  0x3d, 0xfd, 0x1a, 0x3d, 0x49, 0xd4, 0xb8, 0x0a, 0x0a, 0xe9, 0xb8, 0x0a,
  0xf4, 0x26, 0x26, 0x0a, 0x34, 0x1a, 0xc4, 0xc4, 0xfd, 0xd4, 0x1a, 0x0a,
  0x0a, 0xf4, 0xf4, 0x26, 0x64, 0xa4, 0xfd, 0xd4, 0x3d, 0xac, 0xc4, 0xf4,
  0xd4, 0x0a, 0x0a, 0xf4, 0x3d, 0x34, 0xe9, 0x3d, 0x1a, 0x49, 0xb8, 0xfd,
  0x1a, 0x1a, 0xd4, 0x49, 0x3d, 0x49, 0x34, 0xb2, 0xc4, 0xe9, 0x0a, 0xb8,
  0x0a, 0xfd, 0xc4, 0x3d, 0xe9, 0xc4, 0x3d, 0x26, 0x0a, 0x1a, 0xac, 0x0a,
  0xc4, 0xe9, 0xe9, 0xd4, 0x0a, 0x0a, 0xfd, 0xd4, 0x1a, 0xfd, 0xf4, 0x34,
  0xd4, 0x49, 0x0a, 0x1a, 0x0a, 0xd4, 0x34, 0x26, 0x0a, 0xa4, 0x0a, 0x3d,
  0xf4, 0x0a, 0x0a, 0xe9, 0xd4, 0xd4, 0xe9, 0x58, 0xd4, 0x0a, 0xe9, 0x51,
  0xe9, 0x26, 0xfd, 0x49, 0x26, 0xfd, 0xe9, 0x26, 0x26, 0xd4, 0x26, 0x34,
  0x1a, 0xf4, 0xfd, 0xb2, 0xe9, 0x1a, 0x26, 0xe9, 0x1a, 0x1a, 0x26, 0x0a,
  0x0a, 0xe9, 0xe9, 0x1a, 0xf4, 0xd4, 0xac, 0x1a, 0x34, 0xc4, 0x26, 0x26,
  0xc4, 0xa4, 0x34, 0xf4, 0xfd, 0x0a, 0xf4, 0xe9, 0x26, 0xfd, 0xe9, 0xb8,
  0x64, 0xf4, 0xe9, 0x0a, 0xe9, 0x34, 0xe9, 0xfd, 0x1a, 0xfd, 0x26, 0x26,
  0x26, 0xb2, 0xd4, 0x3d, 0x26, 0xe9, 0x0a, 0xd4, 0xfd, 0xd4, 0x1a, 0xfd,
  0x58, 0xe9, 0xd4, 0xfd, 0xa4, 0xc4, 0xfd, 0xc4, 0x26, 0xe9, 0xe9, 0x1a,
  0x1a, 0x26, 0xfd, 0x34, 0x1a, 0xd4, 0xd4, 0xc4, 0xfd, 0xe9, 0xe9, 0xac,
  0x26, 0x3d, 0x0a, 0xe9, 0xfd, 0xe9, 0x1a, 0x3d, 0x26, 0xfd, 0x0a, 0xe9,
  0xfd, 0xfd, 0xd4, 0x0a, 0x34, 0xf4, 0x26, 0xfd, 0x3d, 0x1a, 0xf4, 0xc4,
  0xe9, 0xc4, 0xf4, 0x1a, 0x26, 0xac, 0x0a, 0x34, 0xfd, 0xf4, 0x0a, 0x3d,
  0x51, 0x51, 0xb2, 0x1a, 0x1a, 0xc4, 0x0a, 0x1a, 0xf4, 0x1a, 0x26, 0xfd,
  0xa4, 0x26, 0xe9, 0xf4, 0x26, 0x26, 0x0a, 0xe9, 0xe9, 0xac, 0xc4, 0x0a,
  0xe9, 0xc4, 0xe9, 0x1a, 0x34, 0x51, 0x34, 0xfd, 0x3d, 0xb2, 0xfd, 0xe9,
  0x34, 0xfd, 0xe9, 0xb8, 0xf4, 0xfd, 0x26, 0x26, 0x0a, 0x0a, 0x64, 0x1a,
  0x64, 0x26, 0xd4, 0xd4, 0xfd, 0xc4, 0x58, 0xd4, 0xd4, 0x34, 0xe9, 0xfd,
  0xe9, 0x64, 0xe9, 0xd4, 0x0a, 0xfd, 0x0a, 0xd4, 0x26, 0xe9, 0xe9, 0x1a,
  0xf4, 0x3d, 0x3d, 0xc4, 0xfd, 0xfd, 0xf4, 0xe9, 0xf4, 0x0a, 0xe9, 0xd4,
  0x1a, 0xa4, 0x0a, 0xd4, 0x0a, 0xc4, 0xf4, 0xac, 0x1a, 0xd4, 0xe9, 0xb8,
  0xe8, 0xb5, 0xe8, 0x1b, 0xd2, 0xe8, 0xe8, 0xc2, 0xfd, 0xfd, 0x1b, 0xf3,
  0x28, 0x28, 0x0b, 0x1b, 0xfd, 0xd2, 0x28, 0xf3, 0xe8, 0x1b, 0xfd, 0xaf,
  0xfd, 0x36, 0xf3, 0xd2, 0xd2, 0x36, 0xd2, 0xc2, 0x3f, 0x53, 0xe8, 0x1b,
  0xe8, 0x36, 0x1b, 0x0b, 0xd2, 0x36, 0xd2, 0x0b, 0x1b, 0xb5, 0x36, 0x4b,
  0xfd, 0xe8, 0x1b, 0x1b, 0x3f, 0x0b, 0xc2, 0xfd, 0x28, 0xe8, 0x28, 0xfd,
  0x0b, 0x4b, 0xaf, 0x67, 0x3f, 0xf3, 0x0b, 0x4b, 0x0b, 0xe8, 0x3f, 0xe8,
  0x1b, 0xb5, 0xd2, 0xc2, 0xd2, 0xb5, 0x4b, 0xd2, 0xd2, 0xd2, 0xc2, 0xe8,
  0x0b, 0xd2, 0x36, 0xd2, 0x67, 0x1b, 0xc2, 0xe8, 0xa0, 0xb5, 0x0b, 0x0b,
  0xe8, 0xfd, 0x1b, 0xf3, 0xe8, 0xfd, 0xfd, 0xfd, 0xd2, 0xf3, 0x0b, 0xe8,
  0x3f, 0x1b, 0xd2, 0x1b, 0xf3, 0x3f, 0xd2, 0x1b, 0xd2, 0xfd, 0x0b, 0xe8,
  0xfd, 0xe8, 0xfd, 0xf3, 0x4b, 0x67, 0xfd, 0x1b, 0xfd, 0x1b, 0x36, 0x1b,
  0x53, 0x0b, 0x0b, 0xc2, 0x1b, 0xaf, 0x53, 0x36, 0xd2, 0xd2, 0xd2, 0x28,
  0x28, 0x0b, 0x3f, 0xfd, 0xf3, 0xf3, 0xaf, 0xfd, 0xfd, 0xf3, 0xe8, 0x1b,
  0xd2, 0x28, 0xf3, 0x0b, 0x0b, 0x0b, 0x0b, 0x28, 0x1b, 0xc2, 0xe8, 0xf3,
  0xf3, 0x53, 0x4b, 0xfd, 0xd2, 0xa0, 0xd2, 0xfd, 0xb5, 0x0b, 0xd2, 0xe8,
  0xe8, 0xfd, 0x0b, 0x4b, 0xf3, 0xd2, 0xd2, 0x28, 0xd2, 0x36, 0xfd, 0x1b,
  0xf3, 0xd2, 0xe8, 0x28, 0x1b, 0x0b, 0x28, 0xb5, 0x0b, 0x0b, 0x28, 0xd2,
  0x28, 0xe8, 0xe8, 0xf3, 0x36, 0x1b, 0x0b, 0xfd, 0xe8, 0x53, 0x0b, 0xc2,
  0xd2, 0x3f, 0xc2, 0xe8, 0xb5, 0x0b, 0x0b, 0x0b, 0x0b, 0xd2, 0xd2, 0x0b,
  0xa9, 0xf3, 0xd2, 0x36, 0xaf, 0x28, 0x36, 0x0b, 0x36, 0xfd, 0xf3, 0x0b,
  0xe8, 0x36, 0x0b, 0x1b, 0x28, 0x36, 0xb5, 0x4b, 0x1b, 0x0b, 0x28, 0x53,
  0x3f, 0x28, 0xfd, 0xd2, 0xd2, 0xb5, 0x36, 0xd2, 0xd2, 0xd2, 0x0b, 0xc2,
  0xb5, 0x36, 0x0b, 0x28, 0x3f, 0x28, 0xb5, 0xb5, 0x1b, 0x1b, 0x1b, 0xfd,
  0xe8, 0x36, 0xa9, 0x28, 0xf3, 0xd2, 0x36, 0x1b, 0x28, 0x0b, 0x28, 0xd2,
  0x28, 0x3f, 0x36, 0xf3, 0x28, 0x0b, 0x28, 0xf3, 0x36, 0x28, 0xd2, 0x1b,
  0x3f, 0xe8, 0xd2, 0x0b, 0xf3, 0xd2, 0xd2, 0xd2, 0x0b, 0xc2, 0x1b, 0x36,
  0xd2, 0x36, 0x1b, 0x0b, 0xd2, 0x36, 0xd2, 0xd2, 0x53, 0xfd, 0xc2, 0xfd,
  0xd2, 0x5b, 0x4b, 0x0b, 0xe8, 0xf3, 0x1b, 0x4b, 0xd2, 0x3f, 0xfd, 0xa0,
  0x5b, 0x0b, 0x3f, 0x53, 0xd2, 0x1b, 0xb5, 0xc2, 0xe8, 0x1b, 0x1b, 0x1b,
  0x0b, 0xd2, 0x4b, 0x0b, 0x36, 0x1b, 0xfd, 0x0b, 0xe8, 0x0b, 0x0b, 0x36,
  0x0b, 0x28, 0xe8, 0xfd, 0xf3, 0xf3, 0xe8, 0xe8, 0xf3, 0x36, 0xf3, 0xd2,
  0x3f, 0xe8, 0xd2, 0x1b, 0xfd, 0xfd, 0xe8, 0x1b, 0xc2, 0x4b, 0xe8, 0x4b,
  0x5b, 0xc2, 0x36, 0xfd, 0x1b, 0x36, 0x5b, 0xd2, 0x0b, 0x28, 0x36, 0x0b,
  0x3f, 0xb5, 0xd2, 0xaf, 0xf3, 0xf3, 0xd2, 0x28, 0xf3, 0x3f, 0xe8, 0xd2,
  0xb5, 0x3f, 0xc2, 0xc2, 0x1b, 0x28, 0xa0, 0xaf, 0x1b, 0xfd, 0xe8, 0xaf,
  0xd2, 0xaf, 0x36, 0x1b, 0xe8, 0x4b, 0xfd, 0xfd, 0x5b, 0xb5, 0x28, 0xb5,
  0x0b, 0xfd, 0x0b, 0xd2, 0xd2, 0x0b, 0x4b, 0x36, 0xe8, 0xe8, 0x28, 0xe8,
  0xf3, 0x28, 0xaf, 0xe8, 0x36, 0xd2, 0xf3, 0xe8, 0x1b, 0x36, 0xf3, 0xd2,
  0x0b, 0xe8, 0xc2, 0xfd, 0x28, 0x36, 0x1b, 0xd2, 0x0b, 0xfd, 0xd2, 0xfd,
  0x0b, 0x36, 0xd2, 0xa9, 0x3f, 0xd2, 0x36, 0xd2, 0xe8, 0x36, 0xc2, 0xf3,
  0xfd, 0xe8, 0x28, 0xd2, 0xe8, 0x4b, 0xf3, 0xd2, 0xfd, 0x0b, 0x0b, 0xb5,
  0x67, 0xfd, 0xd2, 0x28, 0x1b, 0xe8, 0x1b, 0xf3, 0x3f, 0x1b, 0x4b, 0x3f,
  0x0b, 0x3f, 0x0b, 0xfd, 0xd2, 0xd2, 0xc2, 0xf3, 0x0b, 0xd2, 0xfd, 0xe8,
  0xe8, 0x1b, 0x7f, 0x1b, 0xe8, 0xc2, 0xfd, 0x36, 0x53, 0x1b, 0xb5, 0xfd,
  0xe8, 0xfd, 0xc2, 0x36, 0xf3, 0x1b, 0xd2, 0xc2, 0x0b, 0x1b, 0x1b, 0x0b,
  0xd2, 0xfd, 0xb5, 0xfd, 0x1b, 0x4b, 0xd2, 0xd2, 0xd2, 0xe8, 0x0b, 0x28,
  0xc2, 0x0b, 0x36, 0xe8, 0x36, 0xd2, 0x28, 0xfd, 0xd2, 0x1b, 0xd2, 0xd2,
  0xf3, 0x28, 0x1b, 0x1b, 0x1b, 0x4b, 0x0b, 0x3f, 0x0b, 0x28, 0x0b, 0x67,
  0x26, 0xb2, 0xf4, 0xac, 0x1a, 0x1a, 0xf4, 0xd4, 0x26, 0xe9, 0x0a, 0xe9,
  0x3d, 0x26, 0x81, 0x0a, 0x0a, 0x3d, 0x7b, 0x0a, 0x3d, 0x1a, 0x58, 0x1a,
  0x3d, 0xd4, 0x26, 0x26, 0xf4, 0xf4, 0x1a, 0x0a, 0xac, 0x26, 0xfd, 0xe9,
  0xfd, 0x1a, 0xc4, 0x0a, 0xc4, 0x0a, 0x3d, 0x49, 0x1a, 0x1a, 0xb8, 0xfd,
  0x49, 0x34, 0xd4, 0x58, 0x3d, 0x1a, 0xb8, 0x0a, 0xe9, 0xd4, 0xe9, 0xe9,
  0x1a, 0xd4, 0xf4, 0x58, 0x34, 0x26, 0x51, 0xc4, 0x26, 0xe9, 0xd4, 0xfd,
  0x26, 0x3d, 0x0a, 0xf4, 0xfd, 0xd4, 0xa4, 0xd4, 0xfd, 0x49, 0x34, 0xd4,
  0x0a, 0x1a, 0x3d, 0xe9, 0xe9, 0xe9, 0xe9, 0x34, 0xc4, 0xfd, 0xe9, 0xa4,
  0xd4, 0x1a, 0x1a, 0x1a, 0xf4, 0xc4, 0xe9, 0xd4, 0xf4, 0x0a, 0xf4, 0x49,
  0x3d, 0xfd, 0x0a, 0xe9, 0x34, 0x49, 0xf4, 0x1a, 0x34, 0x1a, 0x34, 0x0a,
  0xf4, 0xf4, 0x49, 0x0a, 0x1a, 0x1a, 0xe9, 0x3d, 0xf4, 0xd4, 0xfd, 0xfd,
  0x58, 0xfd, 0x0a, 0x3d, 0x1a, 0xf4, 0xfd, 0xa4, 0xe9, 0x1a, 0xd4, 0xd4,
  0xfd, 0x7b, 0x3d, 0xd4, 0xf4, 0x34, 0xf4, 0xb2, 0x0a, 0xfd, 0xd4, 0xc4,
  0x0a, 0xac, 0xb8, 0xe9, 0x1a, 0xe9, 0x0a, 0x0a, 0xe9, 0xfd, 0xc4, 0x26,
  0x3d, 0x0a, 0x0a, 0xfd, 0x0a, 0x26, 0xf4, 0x1a, 0x1a, 0xfd, 0x51, 0x49,
  0x3d, 0xe9, 0x1a, 0xe9, 0x3d, 0xe9, 0x0a, 0xf4, 0xac, 0xc4, 0xd4, 0x49,
  0xf4, 0xb2, 0xc4, 0xd4, 0x51, 0xb8, 0xfd, 0xe9, 0xe9, 0xb8, 0xfd, 0xc4,
  0x1a, 0xb8, 0xf4, 0xd4, 0xb8, 0xe9, 0x34, 0xd4, 0xe9, 0x34, 0x34, 0x0a,
  0xfd, 0xd4, 0xfd, 0x1a, 0xd4, 0x1a, 0xb8, 0x1a, 0xf4, 0x0a, 0xfd, 0x0a,
  0xfd, 0xd4, 0xe9, 0x0a, 0xc4, 0x3d, 0x0a, 0x26, 0x0a, 0x1a, 0x26, 0xb8,
  0xf4, 0x26, 0xfd, 0x34, 0xfd, 0x34, 0xfd, 0x0a, 0x1a, 0x0a, 0xd4, 0x0a,
  0xe9, 0x1a, 0xe9, 0xd4, 0xf4, 0x34, 0x0a, 0x26, 0xe9, 0x26, 0xfd, 0x3d,
  0x1a, 0xd4, 0xf4, 0xd4, 0x26, 0xfd, 0xc4, 0xfd, 0xfd, 0x1a, 0x34, 0xac,
  0xf4, 0x49, 0xf4, 0x1a, 0x26, 0x26, 0xe9, 0xd4, 0xd4, 0xe9, 0x0a, 0xf4,
  0xb2, 0x1a, 0xd4, 0xfd, 0xd4, 0xd4, 0xc4, 0x1a, 0x34, 0xfd, 0xb8, 0x1a,
  0xd4, 0x0a, 0x1a, 0xf4, 0xfd, 0xfd, 0xfd, 0xe9, 0xc4, 0xc4, 0x26, 0x26,
  0xd4, 0xe9, 0xf4, 0xc4, 0x1a, 0x1a, 0xfd, 0x1a, 0x34, 0xf4, 0xb2, 0x0a,
  0x1a, 0x1a, 0xc4, 0x58, 0xfd, 0xb8, 0xd4, 0xd4, 0xfd, 0x1a, 0xa4, 0xf4,
  0xfd, 0x3d, 0x26, 0xfd, 0xe9, 0x1a, 0x1a, 0xd4, 0x34, 0xd4, 0xe9, 0xe9,
  0xf4, 0xe9, 0xe9, 0xd4, 0x1a, 0xac, 0xe9, 0xe9, 0x0a, 0xb8, 0xb8, 0x64,
  0x0a, 0x0a, 0xc4, 0x26, 0x51, 0xfd, 0xf4, 0x97, 0x64, 0x26, 0x34, 0x0a,
  0xfd, 0x26, 0xb2, 0xc4, 0xc4, 0x1a, 0xa4, 0xf4, 0xf4, 0x34, 0xfd, 0x0a,
  0xc4, 0xb8, 0xfd, 0xe9, 0x26, 0x26, 0x26, 0xc4, 0xf4, 0xb2, 0x49, 0x26,
  0xd4, 0x0a, 0x0a, 0xe9, 0x1a, 0x26, 0x49, 0xe9, 0xe9, 0x58, 0x26, 0x64,
  0x3d, 0xc4, 0x34, 0xb8, 0x34, 0xd4, 0xd4, 0xd4, 0xc4, 0xe9, 0xd4, 0x1a,
  0x51, 0x34, 0x26, 0x51, 0xfd, 0x26, 0x26, 0x64, 0xfd, 0x58, 0xb8, 0x34,
  0x1a, 0xfd, 0x49, 0xd4, 0x1a, 0x0a, 0xd4, 0xd4, 0xe9, 0xf4, 0xe9, 0xac,
  0xd4, 0xfd, 0xe9, 0x3d, 0xf4, 0x1a, 0xf4, 0xd4, 0x3d, 0xe9, 0x26, 0xe9,
  0xc4, 0x1a, 0x26, 0xc4, 0xb8, 0x3d, 0xe9, 0x26, 0xb8, 0x1a, 0xf4, 0xa4,
  0xd4, 0xf4, 0xd4, 0x1a, 0xc4, 0xc4, 0xe9, 0xfd, 0x26, 0xe9, 0xfd, 0x0a,
  0xe9, 0x1a, 0xe9, 0xa4, 0xe9, 0xc4, 0xe9, 0x1a, 0xf4, 0x0a, 0xa4, 0x26,
  0x3d, 0x1a, 0xc4, 0xac, 0x3d, 0xfd, 0x51, 0xe9, 0xc4, 0x0a, 0x26, 0x0a,
  0xf4, 0xb2, 0xe9, 0xb8, 0xfd, 0x1a, 0xe9, 0xfd, 0xc4, 0x0a, 0xc4, 0x1a,
  0xe9, 0xe9, 0xb8, 0x3d, 0xd4, 0xb8, 0xd4, 0xd4, 0xd4, 0x26, 0xd4, 0xfd,
  0xc4, 0xe9, 0xe9, 0x26, 0x3d, 0x49, 0xb8, 0xe9, 0x34, 0x0a, 0x1a, 0xe9,
  0x0a, 0xe9, 0x1a, 0xe9, 0x0a, 0xac, 0x26, 0xe9, 0xc4, 0xe9, 0xc4, 0xf4,
  0xd4, 0xe9, 0x26, 0x3d, 0xfd, 0x0a, 0x26, 0x1a, 0x26, 0x0a, 0x1a, 0x3d,
  0xd4, 0xd4, 0x0a, 0xfd, 0xe9, 0xe9, 0xc4, 0x34, 0xa4, 0x1a, 0x0a, 0xf4,
  0xe9, 0x0a, 0xb2, 0x0a, 0x1a, 0x1a, 0xb8, 0x1a, 0x26, 0xc4, 0xd4, 0xc4,
  0x1a, 0xb8, 0x51, 0x51, 0x26, 0xf4, 0xb2, 0x34, 0xd4, 0xe9, 0xd4, 0x1a,
  0xf4, 0xd4, 0x1a, 0xc4, 0xb8, 0x64, 0xfd, 0x58, 0x0a, 0x3d, 0xd4, 0x0a,
  0x64, 0x49, 0xfd, 0xfd, 0x26, 0xb8, 0xe9, 0x3d, 0xc4, 0x1a, 0x26, 0x7b,
  0x0a, 0x1a, 0xf4, 0xc4, 0xc4, 0x26, 0x1a, 0x0a, 0xf4, 0x34, 0xb8, 0xf4,
  0xe9, 0x0a, 0x1a, 0x1a, 0x3d, 0xf4, 0x0a, 0x49, 0xc4, 0x1a, 0x34, 0xc4,
  0x26, 0x0a, 0xe9, 0xf4, 0xc4, 0xd4, 0x3d, 0x34, 0xe9, 0x34, 0xe9, 0xf4,
  0xe9, 0x1a, 0xd4, 0x34, 0x26, 0xd4, 0xf4, 0xfd, 0xe9, 0x0a, 0x26, 0xd4,
  0xd4, 0x26, 0xfd, 0x34, 0x26, 0xf4, 0xe9, 0xe9, 0x3d, 0xf4, 0xfd, 0x1a,
  0x34, 0x3d, 0xfd, 0xe9, 0x0a, 0x1a, 0x1a, 0xd4, 0xd4, 0x1a, 0xd4, 0x3d,
  0x34, 0xfd, 0x0a, 0xd4, 0x1a, 0x26, 0xe9, 0x34, 0x3d, 0x1a, 0xac, 0xfd,
  0xc4, 0x34, 0xd4, 0x34, 0x0a, 0xb8, 0x51, 0xd4, 0x1a, 0xb8, 0x1a, 0xd4,
  0xfd, 0xd4, 0xd4, 0x3d, 0x1a, 0x3d, 0x0a, 0xd4, 0xc4, 0xd4, 0x26, 0xe9,
  0xb2, 0xe9, 0x1a, 0x49, 0xc4, 0x3d, 0xc4, 0x26, 0x49, 0x26, 0xe9, 0x26,
  0x26, 0xfd, 0xa4, 0x3d, 0xfd, 0xd4, 0xd4, 0x1a, 0x51, 0x26, 0x34, 0xb8,
  0xe9, 0x1a, 0xe9, 0xe9, 0xfd, 0x26, 0x3d, 0xe9, 0xa4, 0x97, 0xfd, 0xfd,
  0xd4, 0x3d, 0xfd, 0xfd, 0x1a, 0x49, 0x1a, 0x58, 0x58, 0xb8, 0xfd, 0xf4,
  0x1a, 0xf4, 0x0a, 0xfd, 0xfd, 0x1a, 0xfd, 0x49, 0xfd, 0x0a, 0x34, 0xf4,
  0x26, 0xfd, 0xfd, 0xe9, 0x1a, 0x58, 0xd4, 0xfd, 0xd4, 0xe9, 0xe9, 0x26,
  0x26, 0xd4, 0xfd, 0xfd, 0xd4, 0xd4, 0x26, 0x49, 0xd4, 0x0a, 0x0a, 0x0a,
  0x34, 0xe9, 0x0a, 0xd4, 0x1a, 0x3d, 0xd4, 0x1a, 0xe9, 0x0a, 0xd4, 0xfd,
  0xc4, 0xfd, 0x0a, 0xf4, 0x26, 0xc4, 0xb8, 0x0a, 0xf4, 0x1a, 0x0a, 0xd4,
  0x34, 0xd4, 0x0a, 0xd4, 0x51, 0xe9, 0xf4, 0x34, 0xd4, 0x58, 0x0a, 0x0a,
  0xb8, 0xf4, 0xe9, 0x49, 0x0a, 0xf4, 0xe9, 0x1a, 0xc4, 0x3d, 0xc4, 0xc4,
  0xe9, 0x26, 0xac, 0xc4, 0x1a, 0x26, 0x0a, 0x1a, 0xd4, 0xe9, 0xb2, 0x1a,
  0x0a, 0x51, 0x0a, 0x0a, 0x34, 0x1a, 0x34, 0x1a, 0xe9, 0x0a, 0xc4, 0xe9,
  0x34, 0xfd, 0x26, 0xd4, 0xd4, 0x26, 0x1a, 0x26, 0xe9, 0xd4, 0xc4, 0x26,
  0xd4, 0xe9, 0xe9, 0x1a, 0x0a, 0x0a, 0x34, 0x1a, 0xe9, 0x26, 0x34, 0x0a,
  0xd4, 0xd4, 0x1a, 0xfd, 0x26, 0xe9, 0xfd, 0x0a, 0x1a, 0xf4, 0xd4, 0x0a,
  0xfd, 0xd4, 0x1a, 0xfd, 0x0a, 0xfd, 0xa4, 0xd4, 0x26, 0x34, 0x3d, 0x26,
  0x0a, 0xd4, 0xb2, 0x64, 0xa4, 0x0a, 0x0a, 0x26, 0x0a, 0xe9, 0xd4, 0x0a,
  0xd4, 0xfd, 0xf4, 0x34, 0xe9, 0x3d, 0x1a, 0x1a, 0xf4, 0xd4, 0x1a, 0xfd,
  0xd4, 0xd4, 0xf4, 0xe9, 0xe9, 0x3d, 0xac, 0x3d, 0x3d, 0xf4, 0xc4, 0xc4,
  0x26, 0x0a, 0x0a, 0xfd, 0x1a, 0x0a, 0xfd, 0xf4, 0xac, 0xd4, 0x34, 0xf4,
  0x0a, 0x0a, 0xfd, 0xd4, 0xa4, 0x3d, 0x0a, 0xd4, 0xf4, 0xe9, 0xfd, 0x49,
  0x34, 0xb8, 0x1a, 0x34, 0x97, 0xf4, 0xa4, 0x58, 0xc4, 0x64, 0xb2, 0x1a,
  0xf4, 0xfd, 0xd4, 0x49, 0xc4, 0xe9, 0x1a, 0xac, 0xe9, 0x1a, 0x26, 0xd4,
  0xc4, 0x34, 0x0a, 0xd4, 0x49, 0x51, 0xc4, 0x26, 0x26, 0xfd, 0x1a, 0x49,
  0x1a, 0x3d, 0xfd, 0x26, 0xfd, 0x1a, 0xd4, 0x0a, 0xf4, 0xe9, 0xd4, 0x1a,
  0xe9, 0xac, 0x3d, 0xe9, 0x1a, 0x0a, 0x1a, 0xd4, 0xac, 0xf4, 0xe9, 0x0a,
  0x1a, 0x26, 0x0a, 0xfd, 0x0a, 0x0a, 0x34, 0xe9, 0xe9, 0xa4, 0xd4, 0x3d,
  0xd4, 0x1a, 0xf4, 0xf4, 0x3d, 0x51, 0x0a, 0x26, 0xf4, 0xb8, 0xf4, 0xfd,
  0xf4, 0x0a, 0xe9, 0xe9, 0xd4, 0xf4, 0x34, 0xa4, 0x1a, 0xe9, 0xd4, 0x0a,
  0x26, 0xc4, 0xb8, 0x3d, 0xe9, 0x49, 0xd4, 0xfd, 0x34, 0x1a, 0x0a, 0xd4,
  0xe9, 0x0a, 0xe9, 0x3d, 0xd4, 0xb8, 0x0a, 0xc4, 0xe9, 0xe9, 0x1a, 0xfd,
  0xf4, 0x0a, 0x3d, 0xfd, 0xe9, 0x34, 0xd4, 0x26, 0x1a, 0x3d, 0xe9, 0x49,
  0x26, 0xa4, 0xe9, 0x51, 0xb8, 0x0a, 0xc4, 0xfd, 0x3d, 0xe9, 0x0a, 0xc4,
  0xa4, 0xfd, 0x81, 0x0a, 0x26, 0xf4, 0x0a, 0x1a, 0xfd, 0xd4, 0x49, 0xc4,
  0x3f, 0x4b, 0xfd, 0x28, 0x28, 0x0b, 0x36, 0x36, 0x1b, 0x28, 0xf3, 0x0b,
  0xf3, 0x1b, 0x0b, 0x36, 0xb5, 0xf3, 0xf3, 0xc2, 0xfd, 0xd2, 0xe8, 0x0b,
  0xe8, 0xa9, 0x1b, 0xaf, 0x28, 0x28, 0xc2, 0x1b, 0xe8, 0xd2, 0x36, 0xc2,
  0x0b, 0x1b, 0xc2, 0xfd, 0x36, 0xd2, 0xe8, 0xd2, 0x94, 0xfd, 0x0b, 0x1b,
  0x28, 0xe8, 0x0b, 0xf3, 0xd2, 0x1b, 0xaf, 0x0b, 0x1b, 0x0b, 0x0b, 0xc2,
  0x1b, 0x4b, 0x1b, 0xfd, 0xf3, 0xf3, 0x28, 0x1b, 0x5b, 0x0b, 0xe8, 0x0b,
  0xfd, 0xd2, 0xe8, 0xfd, 0xc2, 0x36, 0xfd, 0x0b, 0xf3, 0xf3, 0x28, 0xe8,
  0x0b, 0xfd, 0x36, 0xe8, 0xfd, 0xfd, 0x0b, 0x1b, 0x28, 0x3f, 0x0b, 0xd2,
  0xc2, 0xfd, 0xd2, 0x0b, 0xc2, 0xc2, 0xaf, 0xb5, 0xc2, 0xd2, 0x3f, 0x0b,
  0xaf, 0x53, 0x5b, 0xaf, 0x0b, 0xa0, 0x28, 0xe8, 0x0b, 0x1b, 0xd2, 0x1b,
  0x3f, 0xf3, 0xf3, 0x1b, 0xe8, 0xe8, 0x28, 0x28, 0x28, 0x36, 0x0b, 0xc2,
  0x1b, 0x28, 0x1b, 0xc2, 0x0b, 0xe8, 0xd2, 0x3f, 0x0b, 0x1b, 0xfd, 0x53,
  0xe8, 0xfd, 0x0b, 0xf3, 0xe8, 0xc2, 0x0b, 0xd2, 0xb5, 0xfd, 0xa9, 0x0b,
  0xf3, 0xe8, 0x94, 0xd2, 0x28, 0x53, 0x1b, 0x0b, 0x1b, 0xc2, 0xfd, 0xfd,
  0xf3, 0x4b, 0xd2, 0xaf, 0xb5, 0xd2, 0xfd, 0xc2, 0x36, 0xa9, 0x3f, 0xa0,
  0x28, 0x1b, 0xe8, 0xfd, 0xfd, 0xb5, 0xe8, 0xd2, 0x0b, 0x3f, 0x3f, 0xd2,
  0xc2, 0x0b, 0xfd, 0x0b, 0x3f, 0x3f, 0xe8, 0xf3, 0xb5, 0xd2, 0x4b, 0x0b,
  0x36, 0x28, 0x28, 0xf3, 0xd2, 0xfd, 0x36, 0xfd, 0x5b, 0xe8, 0x0b, 0xfd,
  0xd2, 0x28, 0xe8, 0x28, 0xf3, 0xd2, 0xa0, 0xd2, 0x28, 0x36, 0xf3, 0x0b,
  0x94, 0x0b, 0xe8, 0xb5, 0xfd, 0xe8, 0x0b, 0xfd, 0xc2, 0x3f, 0x28, 0xc2,
  0xf3, 0x0b, 0x36, 0xe8, 0xb5, 0xe8, 0xc2, 0x36, 0x1b, 0x4b, 0x3f, 0x4b,
  0x0b, 0x0b, 0xf3, 0x1b, 0x3f, 0x0b, 0x0b, 0xe8, 0xe8, 0xfd, 0x28, 0xe8,
  0xb5, 0x0b, 0xf3, 0xf3, 0x1b, 0x4b, 0xd2, 0xf3, 0x28, 0x0b, 0x0b, 0xe8,
  0xd2, 0xe8, 0x28, 0x0b, 0x1b, 0xe8, 0xb5, 0x0b, 0xc2, 0xd2, 0xe8, 0xb5,
  0xd2, 0x36, 0x1b, 0xc2, 0xf3, 0x28, 0x28, 0x36, 0xb5, 0x3f, 0xf3, 0xb5,
  0xc2, 0x28, 0x53, 0xc2, 0xf3, 0x0b, 0xa0, 0xd2, 0xf3, 0xc2, 0x28, 0xf3,
  0x1b, 0x1b, 0xe8, 0x36, 0xa0, 0x28, 0xe8, 0xf3, 0x4b, 0x3f, 0x28, 0xa0,
  0x0b, 0x4b, 0x4b, 0x4b, 0xfd, 0x36, 0x0b, 0x28, 0x1b, 0x3f, 0xe8, 0x1b,
  0xe8, 0xfd, 0xc2, 0x28, 0x36, 0xe8, 0xe8, 0xfd, 0x0b, 0x1b, 0xfd, 0x0b,
  0xf3, 0x28, 0xf3, 0x3f, 0xe8, 0xfd, 0xe8, 0xd2, 0xa0, 0xe8, 0xfd, 0xb5,
  0xf3, 0xc2, 0x0b, 0xd2, 0x28, 0xc2, 0xfd, 0xf3, 0xc2, 0x28, 0xf3, 0xb5,
  0xfd, 0xc2, 0x1b, 0x4b, 0x0b, 0xe8, 0x0b, 0xc2, 0xf3, 0x0b, 0xc2, 0x67,
  0xd2, 0x1b, 0xe8, 0xe8, 0x53, 0xc2, 0x3f, 0xe8, 0x3f, 0xd2, 0xfd, 0xe8,
  0xfd, 0x7f, 0xe8, 0xf3, 0xe8, 0xa9, 0xf3, 0xd2, 0x28, 0xfd, 0xf3, 0xd2,
  0x28, 0x28, 0x0b, 0x4b, 0xaf, 0xc2, 0x0b, 0xc2, 0x36, 0xd2, 0x28, 0x3f,
  0xf3, 0xf3, 0xf3, 0xc2, 0x0b, 0x3f, 0xe8, 0x94, 0xfd, 0x36, 0xfd, 0x0b,
  0x0b, 0x1b, 0xe8, 0xfd, 0xe8, 0xc2, 0xfd, 0x0b, 0x28, 0xd2, 0xc2, 0x3f,
  0xc2, 0x0b, 0xd2, 0x1b, 0xd2, 0x4b, 0x28, 0xc2, 0x5b, 0xc2, 0xfd, 0xa9,
  0xe8, 0x36, 0x0b, 0xf3, 0x0b, 0x5b, 0x4b, 0x4b, 0x0b, 0x0b, 0xc2, 0xd2,
  0xfd, 0xe8, 0x28, 0xd2, 0xfd, 0xd2, 0x94, 0xfd, 0xfd, 0x36, 0xb5, 0x0b,
  0x1b, 0xe8, 0x1b, 0xf3, 0xa9, 0xa0, 0xe8, 0xe8, 0x5b, 0xd2, 0x4b, 0x1b,
  0xa9, 0xe8, 0x0b, 0x1b, 0xfd, 0xb5, 0x28, 0xe8, 0xd2, 0xa9, 0xfd, 0x36,
  0x67, 0x1b, 0x1b, 0xf3, 0xb5, 0x3f, 0xd2, 0x0b, 0xfd, 0x5b, 0xf3, 0xf3,
  0x4b, 0xfd, 0x5b, 0xd2, 0xfd, 0xfd, 0x28, 0x1b, 0xc2, 0xfd, 0x36, 0x36,
  0xc2, 0xc2, 0xe8, 0xfd, 0x1b, 0x94, 0xb5, 0x1b, 0xf3, 0xb5, 0xfd, 0x4b,
  0xe8, 0xd2, 0x0b, 0x36, 0xaf, 0x4b, 0x36, 0x0b, 0x94, 0xfd, 0xf3, 0xfd,
  0x1b, 0x28, 0x1b, 0x0b, 0xe8, 0xf3, 0x4b, 0xc2, 0xfd, 0xb5, 0x0b, 0xf3,
  0xb5, 0xd2, 0xf3, 0x3f, 0x1b, 0xc2, 0x28, 0xd2, 0xc2, 0xf3, 0x1b, 0xe8,
  0xfd, 0xd4, 0x0a, 0x34, 0x26, 0x1a, 0xfd, 0x1a, 0xc4, 0xd4, 0xa4, 0xc4,
  0x0a, 0x1a, 0x49, 0xb8, 0xf4, 0xe9, 0xf4, 0x0a, 0xfd, 0x26, 0xd4, 0xe9,
  0xfd, 0x26, 0x49, 0xfd, 0x26, 0xfd, 0x3d, 0xf4, 0xd4, 0xb8, 0xe9, 0xfd,
  0xe9, 0x26, 0xa4, 0xa4, 0x51, 0xfd, 0x26, 0x26, 0x1a, 0xc4, 0xd4, 0xd4,
  0x1a, 0x26, 0xb2, 0xd4, 0x0a, 0x26, 0x26, 0xc4, 0xe9, 0xd4, 0xd4, 0xd4,
  0xe9, 0xe9, 0xe9, 0x0a, 0xe9, 0xfd, 0x1a, 0x26, 0x0a, 0xc4, 0x34, 0x0a,
  0xe9, 0x3d, 0xb8, 0xb2, 0x3d, 0xc4, 0x3d, 0x1a, 0x0a, 0xe9, 0xb8, 0xfd,
  0xc4, 0xe9, 0xe9, 0xd4, 0xb8, 0xd4, 0x34, 0xe9, 0xc4, 0x51, 0x1a, 0x3d,
  0xb8, 0x1a, 0x0a, 0xe9, 0x58, 0x51, 0xe9, 0xfd, 0x0a, 0x1a, 0x0a, 0x3d,
  0xfd, 0xb2, 0xb8, 0xb8, 0x49, 0xfd, 0xc4, 0xc4, 0x0a, 0xfd, 0xd4, 0x1a,
  0xd4, 0xc4, 0xd4, 0x0a, 0x0a, 0xf4, 0x1a, 0xd4, 0xd4, 0x1a, 0xe9, 0xf4,
  0x0a, 0x0a, 0xe9, 0x26, 0x0a, 0xf4, 0xb8, 0xfd, 0x1a, 0xe9, 0x3d, 0xe9,
  0x1a, 0x97, 0x1a, 0x64, 0xe9, 0x49, 0x81, 0xfd, 0x1a, 0x0a, 0x64, 0xd4,
  0xd4, 0x3d, 0x1a, 0x58, 0xd4, 0xe9, 0xe9, 0x49, 0x1a, 0x34, 0xb2, 0x1a,
  0xac, 0xe9, 0x0a, 0x34, 0x0a, 0xe9, 0xf4, 0xe9, 0x64, 0xe9, 0x3d, 0xf4,
  0xe9, 0x34, 0x1a, 0x0a, 0x1a, 0xfd, 0xe9, 0xb8, 0xfd, 0xfd, 0xc4, 0xd4,
  0xb2, 0x26, 0xd4, 0x64, 0xd4, 0xb2, 0x26, 0x0a, 0x26, 0x0a, 0x26, 0xd4,
  0x3d, 0x0a, 0x26, 0x1a, 0x49, 0xf4, 0x0a, 0x1a, 0x1a, 0x0a, 0xb8, 0x0a,
  0x1a, 0x0a, 0xe9, 0xa4, 0x0a, 0x49, 0x26, 0xf4, 0x0a, 0xc4, 0xd4, 0xe9,
  0x0a, 0xd4, 0x0a, 0xf4, 0x1a, 0xf4, 0x26, 0x0a, 0xd4, 0x0a, 0xd4, 0xfd,
  0x26, 0x26, 0x81, 0xb2, 0x34, 0x26, 0xe9, 0x34, 0xc4, 0xf4, 0xfd, 0xac,
  0xd4, 0x26, 0x34, 0xc4, 0x26, 0x3d, 0xb2, 0x1a, 0x1a, 0xa4, 0x34, 0x26,
  0xf4, 0xfd, 0xb8, 0x0a, 0x26, 0xd4, 0x51, 0x26, 0xb8, 0x34, 0x1a, 0xd4,
  0x0a, 0x26, 0xb2, 0xfd, 0xb8, 0x34, 0x0a, 0x1a, 0x0a, 0x1a, 0xb2, 0xb2,
  0xe9, 0xe9, 0xf4, 0x26, 0xfd, 0x1a, 0x26, 0x0a, 0xfd, 0xd4, 0xe9, 0xfd,
  0x34, 0x0a, 0xd4, 0x34, 0x1a, 0xfd, 0x1a, 0x26, 0x1a, 0xe9, 0xfd, 0xb2,
  0x0a, 0x26, 0x0a, 0xf4, 0x34, 0x0a, 0xf4, 0x0a, 0x0a, 0xd4, 0x26, 0x26,
  0xe9, 0xf4, 0x1a, 0xd4, 0xe9, 0xc4, 0xd4, 0xa4, 0x0a, 0xc4, 0x3d, 0xd4,
  0x3d, 0x0a, 0xd4, 0x58, 0x3d, 0x1a, 0x1a, 0xd4, 0xa4, 0xd4, 0xd4, 0x1a,
  0xd4, 0x3d, 0x1a, 0xc4, 0x34, 0xe9, 0xb2, 0xf4, 0x3d, 0x0a, 0xb8, 0x49,
  0xb8, 0xf4, 0x49, 0x26, 0xe9, 0x26, 0xe9, 0x0a, 0x0a, 0xb8, 0xe9, 0x3d,
  0xd4, 0x26, 0xd4, 0x1a, 0xb2, 0x26, 0x0a, 0xfd, 0xc4, 0x0a, 0x26, 0xc4,
  0xe9, 0x3d, 0x1a, 0x49, 0x26, 0xfd, 0x26, 0xfd, 0xc4, 0x49, 0x0a, 0xe9,
  0x1a, 0xa4, 0x0a, 0xe9, 0x3d, 0xe9, 0x49, 0xd4, 0xc4, 0x0a, 0xe9, 0xe9,
  0x26, 0x26, 0x0a, 0xc4, 0xe9, 0xfd, 0x3d, 0x0a, 0x0a, 0xac, 0xfd, 0xd4,
  0x3d, 0x0a, 0xd4, 0xfd, 0x1a, 0xac, 0xd4, 0x1a, 0xd4, 0x3d, 0x34, 0x26,
  0xfd, 0xe9, 0xe9, 0xfd, 0x34, 0x0a, 0x0a, 0xf4, 0xb8, 0xd4, 0xb2, 0xd4,
  0x1a, 0xe9, 0xd4, 0xd4, 0xd4, 0x1a, 0xd4, 0xc4, 0xe9, 0x0a, 0x97, 0x34,
  0x26, 0x26, 0xe9, 0x34, 0xe9, 0xa4, 0xfd, 0xd4, 0x0a, 0x58, 0x1a, 0xb8,
  0xb8, 0x1a, 0xc4, 0x51, 0xc4, 0xe9, 0xd4, 0xac, 0xf4, 0x0a, 0xf4, 0xfd,
  0x26, 0x0a, 0x0a, 0x26, 0xfd, 0x1a, 0xc4, 0x26, 0x1a, 0x0a, 0x64, 0xfd,
  0x0a, 0x58, 0x3d, 0x26, 0xd4, 0x49, 0x0a, 0xfd, 0x0a, 0xd4, 0x1a, 0x0a,
  0xd4, 0xfd, 0xfd, 0xd4, 0xd4, 0x26, 0x51, 0x0a, 0xfd, 0x34, 0x34, 0x49,
  0xfd, 0xc4, 0xd4, 0x49, 0x26, 0x1a, 0xfd, 0xac, 0xe9, 0xd4, 0x26, 0xd4,
  0x0a, 0x0a, 0xe9, 0xf4, 0xe9, 0xf4, 0xe9, 0x1a, 0xfd, 0xe9, 0x26, 0xfd,
  0xd4, 0xd4, 0xe9, 0xd4, 0x34, 0x0a, 0xd4, 0x0a, 0x1a, 0xe9, 0xd4, 0x49,
  0xc4, 0xc4, 0x34, 0x1a, 0xf4, 0xe9, 0xd4, 0x1a, 0xd4, 0x26, 0xd4, 0x0a,
  0xe9, 0xfd, 0x1a, 0x1a, 0xd4, 0xc4, 0x1a, 0xb2, 0xd4, 0xf4, 0xd4, 0xfd,
  0xfd, 0xf4, 0x1a, 0xb2, 0x34, 0xd4, 0xe9, 0xfd, 0x51, 0x26, 0xe9, 0xf4,
  0xd4, 0x0a, 0x0a, 0xd4, 0x0a, 0xf4, 0x34, 0x1a, 0x26, 0x3d, 0xc4, 0x0a,
  0x58, 0xf4, 0x34, 0x0a, 0xf4, 0xc4, 0xac, 0xd4, 0x26, 0xf4, 0xe9, 0x26,
  0x26, 0xc4, 0xd4, 0x0a, 0x1a, 0x1a, 0xf4, 0xe9, 0xd4, 0xc4, 0x1a, 0x3d,
  0xf4, 0x64, 0xe9, 0xfd, 0x49, 0xa4, 0xd4, 0xfd, 0x3d, 0x3d, 0xe9, 0xb8,
  0xd4, 0xf4, 0xfd, 0x0a, 0x1a, 0x0a, 0x26, 0xf4, 0x26, 0x0a, 0x1a, 0xe9,
  0x49, 0xd4, 0xe9, 0x0a, 0xe9, 0xe9, 0x26, 0xfd, 0x0a, 0x0a, 0x34, 0xd4,
  0x34, 0xf4, 0x1a, 0x26, 0x34, 0xe9, 0xfd, 0xe9, 0xf4, 0x0a, 0xd4, 0xa4,
  0xf4, 0x34, 0x1a, 0xd4, 0x0a, 0xf4, 0xb2, 0x26, 0x34, 0xe9, 0xe9, 0xfd,
  0x34, 0xb8, 0xfd, 0xfd, 0xc4, 0x34, 0x97, 0x26, 0xb8, 0xb2, 0xfd, 0xe9,
  0x58, 0x26, 0x3d, 0xd4, 0xfd, 0xfd, 0xb8, 0xc4, 0x26, 0xb8, 0x34, 0xd4,
  0x51, 0xc4, 0xb8, 0x3d, 0xe9, 0xfd, 0x58, 0x51, 0xfd, 0xf4, 0x34, 0xf4,
  0xd4, 0xb2, 0xd4, 0xf4, 0x49, 0x26, 0x0a, 0xe9, 0x0a, 0xb8, 0x1a, 0x34,
  0x0a, 0xfd, 0xd4, 0xb2, 0x49, 0x34, 0xb8, 0xc4, 0x1a, 0xf4, 0xb2, 0xfd,
  0xf4, 0x26, 0xc4, 0xac, 0x1a, 0x97, 0xc4, 0x3d, 0x26, 0x3d, 0x97, 0x64,
  0x34, 0xc4, 0x49, 0xfd, 0x64, 0xd4, 0xc4, 0xd4, 0xf4, 0x1a, 0xfd, 0x26,
  0x0a, 0x49, 0x34, 0xb8, 0xd4, 0xfd, 0xd4, 0xe9, 0x26, 0xf4, 0x0a, 0x3d,
  0xd4, 0x26, 0xc4, 0xe9, 0xfd, 0xd4, 0xd4, 0xfd, 0xfd, 0xc4, 0x51, 0xd4,
  0x1a, 0x1a, 0x58, 0xf4, 0xe9, 0xd4, 0xd4, 0x1a, 0x0a, 0x34, 0xfd, 0x0a,
  0x1a, 0xc4, 0x0a, 0xb2, 0xd4, 0x3d, 0xd4, 0x49, 0x34, 0x26, 0x3d, 0xfd,
  0xb2, 0xd4, 0xd4, 0x0a, 0xb8, 0x0a, 0x26, 0xb8, 0x26, 0x26, 0xe9, 0xfd,
  0x49, 0x0a, 0xc4, 0xfd, 0xd4, 0x58, 0x58, 0x1a, 0x1a, 0xd4, 0xfd, 0xf4,
  0x0a, 0xe9, 0xc4, 0xc4, 0xe9, 0xfd, 0xf4, 0xe9, 0xe9, 0x26, 0xd4, 0xf4,
  0x26, 0x0a, 0xc4, 0xe9, 0xc4, 0xd4, 0x49, 0x0a, 0xf4, 0x1a, 0xd4, 0x0a,
  0xe9, 0x1a, 0xfd, 0xc4, 0x26, 0xb8, 0xfd, 0xb8, 0xb8, 0x1a, 0xc4, 0xe9,
  0x1a, 0xe9, 0xfd, 0xe9, 0xc4, 0x0a, 0xc4, 0x34, 0xf4, 0x0a, 0xf4, 0xe9,
  0x0a, 0x1a, 0x0a, 0x26, 0xe9, 0x1a, 0xf4, 0xd4, 0xfd, 0xe9, 0x26, 0xe9,
  0x1a, 0xf4, 0xb8, 0xd4, 0x26, 0xe9, 0x0a, 0xc4, 0x1a, 0x0a, 0xd4, 0xb2,
  0xf4, 0xc4, 0xfd, 0x26, 0xfd, 0xe9, 0xe9, 0xc4, 0xe9, 0xf4, 0x1a, 0x26,
  0xb8, 0xb8, 0xc4, 0xb8, 0x0a, 0xf4, 0xf4, 0xe9, 0xac, 0x26, 0xf4, 0xd4,
  0x26, 0x3d, 0xfd, 0xfd, 0x49, 0x0a, 0xd4, 0x0a, 0xd4, 0xe9, 0xc4, 0x58,
  0x0a, 0x0a, 0xe9, 0xe9, 0x26, 0x1a, 0x0a, 0x1a, 0x26, 0xfd, 0xc4, 0xe9,
  0xe9, 0xf4, 0x3d, 0x1a, 0xf4, 0xf4, 0xb8, 0xb8, 0xc4, 0x26, 0x0a, 0xfd,
  0xfd, 0x26, 0xe9, 0xc4, 0x0a, 0x26, 0x81, 0x1a, 0xc4, 0x34, 0x49, 0xe9,
  0x0a, 0xc4, 0xe9, 0x64, 0xf4, 0xb8, 0x0a, 0x0a, 0x26, 0xe9, 0xfd, 0xf4,
  0xfd, 0x3d, 0xfd, 0xf4, 0xe9, 0x26, 0xfd, 0xe9, 0x3d, 0xc4, 0xd4, 0x1a,
  0x0a, 0xf4, 0xa4, 0x1a, 0xc4, 0x34, 0x51, 0xd4, 0xb2, 0x0a, 0x3d, 0x1a,
  0xf4, 0x26, 0x26, 0x34, 0xe9, 0xf4, 0xe9, 0xfd, 0xe9, 0xd4, 0xfd, 0x81,
  0xfd, 0x1a, 0x0a, 0x26, 0xd4, 0xf4, 0x34, 0x0a, 0xc4, 0xd4, 0xb2, 0xb8,
  0xd4, 0xd4, 0x1a, 0xe9, 0xc4, 0xd4, 0x3d, 0x0a, 0x26, 0xd4, 0xd4, 0x1a,
  0x1a, 0x34, 0xb2, 0x26, 0xc4, 0x26, 0x0a, 0xb2, 0x49, 0x26, 0x3d, 0xb8,
  0x3d, 0xfd, 0xf4, 0x1a, 0xc4, 0x26, 0x26, 0xd4, 0x0a, 0xf4, 0x1a, 0xe9,
  0x26, 0xd4, 0x34, 0xf4, 0x49, 0x1a, 0x3d, 0xc4, 0xc4, 0x0a, 0x0a, 0x34,
  0x26, 0x1a, 0x97, 0x81, 0xd4, 0x0a, 0xd4, 0x1a, 0xd4, 0x34, 0x1a, 0xc4,
  0xc4, 0xc4, 0x0a, 0x1a, 0x26, 0x0a, 0xd4, 0xc4, 0xf4, 0xd4, 0x0a, 0x58,
  0xe9, 0xd4, 0xc4, 0x0a, 0xfd, 0x26, 0xc4, 0x49, 0xd4, 0xd4, 0x34, 0xf4,
  0x1a, 0x1a, 0xfd, 0xd4, 0x34, 0xf4, 0x34, 0xe9, 0xd4, 0xc4, 0xc4, 0x34,
  0x0a, 0x1a, 0x3d, 0xd4, 0xd4, 0xe9, 0x1a, 0x26, 0x0a, 0xe9, 0x3d, 0xb8,
  0xe8, 0x0b, 0xfd, 0x1b, 0x28, 0xa0, 0x0b, 0xc2, 0x1b, 0xd2, 0xe8, 0xfd,
  0xe8, 0xc2, 0xd2, 0xe8, 0xd2, 0xe8, 0x67, 0x3f, 0xaf, 0xfd, 0x0b, 0x0b,
  0x0b, 0xd2, 0xc2, 0x36, 0xc2, 0x4b, 0xc2, 0xe8, 0x1b, 0x0b, 0x1b, 0xc2,
  0xe8, 0x0b, 0xe8, 0xc2, 0x3f, 0x1b, 0x36, 0xc2, 0xaf, 0x28, 0xfd, 0xfd,
  0x53, 0xd2, 0x28, 0x5b, 0xe8, 0xd2, 0xd2, 0x28, 0xd2, 0xa0, 0x36, 0xb5,
  0xd2, 0xf3, 0x94, 0x5b, 0x0b, 0x1b, 0x5b, 0xc2, 0x36, 0xfd, 0xe8, 0x28,
  0x36, 0xb5, 0xe8, 0x28, 0x1b, 0x1b, 0xe8, 0xf3, 0x36, 0x1b, 0x36, 0x1b,
  0xb5, 0xf3, 0x1b, 0x0b, 0xb5, 0xb5, 0x28, 0x5b, 0xaf, 0x1b, 0x0b, 0x0b,
  0x0b, 0x53, 0xf3, 0x28, 0x28, 0xc2, 0xb5, 0xf3, 0x36, 0x1b, 0xb5, 0xaf,
  0x94, 0x28, 0xfd, 0x0b, 0x36, 0xe8, 0x0b, 0x0b, 0x28, 0x1b, 0x28, 0x1b,
  0xd2, 0xd2, 0xc2, 0xb5, 0x1b, 0x28, 0x0b, 0xd2, 0x1b, 0xc2, 0xd2, 0xfd,
  0x28, 0xf3, 0xd2, 0xe8, 0x0b, 0xe8, 0xd2, 0x0b, 0x3f, 0x1b, 0xfd, 0xfd,
  0xfd, 0x1b, 0x7f, 0xaf, 0xd2, 0x5b, 0x36, 0xb5, 0xaf, 0xa0, 0xd2, 0x7f,
  0xc2, 0x28, 0xf3, 0x4b, 0x36, 0x1b, 0x28, 0x1b, 0xe8, 0xaf, 0x36, 0x28,
  0x36, 0xfd, 0xe8, 0xc2, 0xc2, 0xd2, 0x28, 0x94, 0x1b, 0xc2, 0xfd, 0x3f,
  0x4b, 0xd2, 0x28, 0xd2, 0x4b, 0x1b, 0x36, 0xe8, 0xd2, 0x28, 0xa0, 0x3f,
  0x1b, 0xd2, 0x28, 0x0b, 0x36, 0xfd, 0x36, 0xfd, 0x28, 0xa0, 0xe8, 0x3f,
  0x1b, 0x1b, 0xc2, 0xfd, 0x1b, 0x4b, 0x3f, 0x1b, 0xe8, 0xe8, 0xfd, 0x0b,
  0x0b, 0xb5, 0xd2, 0xd2, 0xe8, 0x0b, 0x28, 0xf3, 0x28, 0xd2, 0x1b, 0x1b,
  0x0b, 0xd2, 0xd2, 0x28, 0x28, 0x1b, 0xfd, 0xd2, 0xb5, 0x0b, 0x0b, 0x36,
  0x36, 0xd2, 0xfd, 0x1b, 0x1b, 0xe8, 0xfd, 0x28, 0xe8, 0x1b, 0x28, 0xe8,
  0x36, 0xd2, 0x94, 0x3f, 0x3f, 0xe8, 0xa9, 0xfd, 0x28, 0x1b, 0x36, 0xd2,
  0x36, 0xb5, 0xe8, 0x1b, 0xe8, 0x1b, 0xe8, 0xd2, 0xfd, 0xd2, 0xf3, 0xb5,
  0xd2, 0x1b, 0xe8, 0x1b, 0xc2, 0xaf, 0xf3, 0x5b, 0xfd, 0xf3, 0xfd, 0x28,
  0xc2, 0xe8, 0x36, 0x3f, 0xd2, 0x28, 0xd2, 0x28, 0xfd, 0x28, 0xf3, 0x28,
  0x0b, 0xf3, 0x0b, 0x28, 0x53, 0xd2, 0xc2, 0x3f, 0x1b, 0xb5, 0xd2, 0x28,
  0xd2, 0xe8, 0xd2, 0xd2, 0xd2, 0x28, 0xe8, 0xfd, 0x36, 0xe8, 0x0b, 0x28,
  0xb5, 0xc2, 0x0b, 0x4b, 0xfd, 0xa0, 0xc2, 0xc2, 0xe8, 0xfd, 0xe8, 0xd2,
  0xe8, 0x1b, 0x36, 0xd2, 0xc2, 0xfd, 0x0b, 0xc2, 0x0b, 0xf3, 0xfd, 0x1b,
  0xd2, 0xd2, 0xc2, 0x28, 0x36, 0xc2, 0xc2, 0x36, 0xe8, 0xe8, 0x28, 0x0b,
  0xd2, 0xe8, 0xfd, 0xfd, 0x0b, 0x0b, 0xd2, 0xe8, 0x0b, 0xfd, 0x1b, 0x67,
  0x1b, 0x94, 0xd2, 0xf3, 0x0b, 0xd2, 0xd2, 0xf3, 0xb5, 0xe8, 0xc2, 0xfd,
  0x0b, 0xd2, 0xfd, 0xe8, 0xd2, 0xd2, 0x3f, 0xc2, 0xd2, 0xb5, 0xd2, 0xfd,
  0xe8, 0xe8, 0x28, 0x0b, 0xc2, 0x1b, 0x36, 0x0b, 0xc2, 0x28, 0x28, 0xb5,
  0xc2, 0xd2, 0x28, 0xb5, 0xa0, 0x1b, 0xe8, 0xd2, 0xc2, 0x28, 0xfd, 0xf3,
  0x1b, 0xfd, 0xc2, 0x0b, 0xc2, 0xf3, 0x36, 0xb5, 0xf3, 0x0b, 0x0b, 0xfd,
  0xfd, 0x0b, 0xf3, 0x4b, 0x36, 0xb5, 0xc2, 0xfd, 0x94, 0x3f, 0x1b, 0xe8,
  0xe8, 0xf3, 0xe8, 0x36, 0xfd, 0xc2, 0x1b, 0xe8, 0x1b, 0xd2, 0xe8, 0xfd,
  0xfd, 0x1b, 0xf3, 0xc2, 0x28, 0x94, 0x28, 0xd2, 0x1b, 0x0b, 0xc2, 0xfd,
  0x0b, 0xfd, 0x1b, 0xd2, 0xf3, 0xfd, 0xb5, 0x28, 0xc2, 0xc2, 0x53, 0x3f,
  0x1b, 0xd2, 0xf3, 0x28, 0xe8, 0x1b, 0x0b, 0x53, 0x36, 0x0b, 0x0b, 0x0b,
  0xb5, 0xd2, 0x0b, 0xd2, 0x1b, 0xfd, 0xd2, 0x67, 0xc2, 0xf3, 0xaf, 0x1b,
  0xc2, 0xf3, 0x1b, 0x1b, 0xe8, 0xd2, 0x0b, 0xd2, 0x1b, 0xfd, 0xe8, 0xd2,
  0xe8, 0x1b, 0x1b, 0xfd, 0x0b, 0xe8, 0xd2, 0x28, 0x0b, 0xa0, 0xfd, 0x0b,
  0x53, 0x4b, 0xfd, 0x0b, 0x28, 0xf3, 0x0b, 0xc2, 0xb5, 0xc2, 0x36, 0xe8,
  0xfd, 0xaf, 0x0b, 0x1b, 0x1b, 0xa0, 0x28, 0x1b, 0xd2, 0xe8, 0xd2, 0xd2,
  0x28, 0x3f, 0x0b, 0xe8, 0xc2, 0x0b, 0x28, 0xfd, 0x36, 0xc2, 0x5b, 0x7f,
  0xf3, 0xd2, 0xa9, 0xfd, 0xf3, 0xd2, 0x0b, 0x0b, 0x36, 0x1b, 0x36, 0x1b,
  0x26, 0xf4, 0x0a, 0x1a, 0xe9, 0xe9, 0x3d, 0xb8, 0x0a, 0xc4, 0xd4, 0x7b,
  0x34, 0x26, 0xb2, 0xd4, 0x3d, 0xd4, 0xf4, 0xd4, 0x0a, 0x49, 0x34, 0x26,
  0x0a, 0x1a, 0xc4, 0xb8, 0xf4, 0x0a, 0x1a, 0x26, 0x0a, 0xfd, 0xc4, 0xc4,
  0xd4, 0xc4, 0x34, 0xf4, 0xe9, 0x1a, 0xb2, 0x0a, 0xd4, 0xc4, 0xfd, 0xd4,
  0xd4, 0xe9, 0xb8, 0x26, 0xb8, 0xd4, 0x3d, 0x1a, 0xd4, 0xfd, 0xf4, 0x81,
  0x0a, 0x51, 0x26, 0xfd, 0xf4, 0xd4, 0x1a, 0x0a, 0x34, 0xb8, 0xd4, 0xa4,
  0x0a, 0x26, 0xf4, 0xfd, 0x34, 0xd4, 0xa4, 0x97, 0x26, 0xd4, 0x97, 0x0a,
  0xfd, 0xc4, 0x97, 0x1a, 0xd4, 0x34, 0xfd, 0x26, 0x1a, 0x1a, 0xc4, 0x0a,
  0x26, 0xf4, 0xe9, 0xfd, 0x1a, 0x1a, 0x0a, 0x26, 0xd4, 0x34, 0xfd, 0xb8,
  0x34, 0x34, 0xd4, 0x3d, 0xc4, 0x34, 0x1a, 0xd4, 0x1a, 0xfd, 0x49, 0xf4,
  0x1a, 0xd4, 0xe9, 0xb8, 0xb2, 0xe9, 0x51, 0x1a, 0x26, 0x0a, 0xd4, 0x51,
  0xd4, 0xf4, 0xc4, 0xf4, 0x1a, 0xf4, 0xc4, 0x7b, 0xd4, 0xe9, 0xe9, 0x81,
  0xd4, 0x0a, 0xd4, 0xe9, 0x26, 0xa4, 0x0a, 0x1a, 0xe9, 0xfd, 0xfd, 0xe9,
  0xb2, 0xac, 0xf4, 0xb8, 0xd4, 0xd4, 0xb8, 0xfd, 0xe9, 0xd4, 0xe9, 0x3d,
  0xe9, 0xb8, 0xd4, 0x58, 0x1a, 0x26, 0xfd, 0x49, 0x3d, 0xfd, 0x1a, 0x34,
  0x0a, 0x1a, 0x3d, 0xb8, 0xd4, 0x26, 0x34, 0xf4, 0xfd, 0x1a, 0x58, 0xf4,
  0x34, 0x34, 0xd4, 0xb8, 0xac, 0xf4, 0x26, 0xb8, 0xfd, 0xfd, 0xf4, 0x1a,
  0x3d, 0xd4, 0x81, 0xe9, 0xfd, 0x49, 0xb8, 0xc4, 0x34, 0xe9, 0xd4, 0x1a,
  0x51, 0xd4, 0xd4, 0xf4, 0x34, 0xf4, 0x3d, 0xfd, 0x0a, 0xd4, 0x97, 0xf4,
  0x3d, 0x3d, 0x26, 0xd4, 0xe9, 0xfd, 0xc4, 0xe9, 0xe9, 0xac, 0x0a, 0xd4,
  0x51, 0x1a, 0xc4, 0xac, 0xb8, 0xe9, 0x0a, 0xf4, 0xd4, 0x1a, 0xc4, 0xd4,
  0xf4, 0x34, 0xfd, 0xac, 0xd4, 0x0a, 0xfd, 0x26, 0xd4, 0xb8, 0x1a, 0xf4,
  0xb8, 0x0a, 0xfd, 0x34, 0x0a, 0x1a, 0xc4, 0xb8, 0xd4, 0xd4, 0x26, 0xf4,
  0xf4, 0xe9, 0x1a, 0xb2, 0xfd, 0xfd, 0x0a, 0x26, 0x1a, 0xf4, 0x0a, 0xfd,
  0x1a, 0x26, 0xe9, 0xa4, 0x0a, 0xfd, 0xe9, 0xd4, 0xf4, 0xfd, 0xc4, 0xc4,
  0x49, 0x51, 0xc4, 0xe9, 0x0a, 0xd4, 0x97, 0x0a, 0xd4, 0xfd, 0xc4, 0xfd,
  0x49, 0x1a, 0x1a, 0xf4, 0xf4, 0x0a, 0xe9, 0xe9, 0xf4, 0xe9, 0xd4, 0x1a,
  0xf4, 0xe9, 0x0a, 0xb8, 0xfd, 0xd4, 0x0a, 0x0a, 0x1a, 0x0a, 0xe9, 0xd4,
  0x0a, 0x3d, 0x34, 0xc4, 0x1a, 0x26, 0xd4, 0xfd, 0x1a, 0xe9, 0xe9, 0xc4,
  0xfd, 0x26, 0xe9, 0xe9, 0x3d, 0x26, 0xd4, 0xb8, 0xfd, 0xe9, 0x1a, 0x49,
  0xd4, 0xfd, 0xf4, 0x0a, 0xd4, 0x34, 0xfd, 0xd4, 0x3d, 0xfd, 0xd4, 0xc4,
  0x1a, 0xc4, 0xe9, 0xc4, 0x97, 0xfd, 0xe9, 0xd4, 0xb8, 0xf4, 0x26, 0xd4,
  0x0a, 0xb8, 0xb8, 0xe9, 0xd4, 0x1a, 0xfd, 0xb2, 0xe9, 0x1a, 0xd4, 0x58,
  0xd4, 0x49, 0xe9, 0xa4, 0x49, 0xf4, 0x26, 0x34, 0x1a, 0x26, 0x1a, 0xe9,
  0xf4, 0x0a, 0x3d, 0xd4, 0xc4, 0xc4, 0x58, 0x26, 0x26, 0xd4, 0xd4, 0xd4,
  0x0a, 0xd4, 0xc4, 0xf4, 0x58, 0x0a, 0xc4, 0x1a, 0x0a, 0x0a, 0xd4, 0x1a,
  0xc4, 0x51, 0x97, 0xe9, 0xf4, 0x0a, 0x3d, 0xe9, 0x26, 0xe9, 0xfd, 0x1a,
